{
  "vocab_size": 8000,
  "token_to_id": {
    "<pad>": 0,
    "<unk>": 1,
    "<bos>": 2,
    "<eos>": 3,
    " ": 4,
    "!": 5,
    "\"": 6,
    "#": 7,
    "$": 8,
    "%": 9,
    "&": 10,
    "'": 11,
    "(": 12,
    ")": 13,
    "*": 14,
    "+": 15,
    ",": 16,
    "-": 17,
    ".": 18,
    "/": 19,
    "0": 20,
    "1": 21,
    "2": 22,
    "3": 23,
    "4": 24,
    "5": 25,
    "6": 26,
    "7": 27,
    "8": 28,
    "9": 29,
    ":": 30,
    ";": 31,
    "<": 32,
    "=": 33,
    ">": 34,
    "?": 35,
    "@": 36,
    "[": 37,
    "]": 38,
    "^": 39,
    "a": 40,
    "b": 41,
    "c": 42,
    "d": 43,
    "e": 44,
    "f": 45,
    "g": 46,
    "h": 47,
    "i": 48,
    "j": 49,
    "k": 50,
    "l": 51,
    "m": 52,
    "n": 53,
    "o": 54,
    "p": 55,
    "q": 56,
    "r": 57,
    "s": 58,
    "t": 59,
    "u": 60,
    "v": 61,
    "w": 62,
    "x": 63,
    "y": 64,
    "z": 65,
    "~": 66,
    "£": 67,
    "°": 68,
    "²": 69,
    "µ": 70,
    "×": 71,
    "á": 72,
    "ä": 73,
    "æ": 74,
    "ç": 75,
    "é": 76,
    "í": 77,
    "ñ": 78,
    "ó": 79,
    "ô": 80,
    "ö": 81,
    "ü": 82,
    "ć": 83,
    "č": 84,
    "đ": 85,
    "ł": 86,
    "ń": 87,
    "ō": 88,
    "š": 89,
    "ż": 90,
    "β": 91,
    "μ": 92,
    "ก": 93,
    "ง": 94,
    "ณ": 95,
    "ต": 96,
    "ม": 97,
    "ย": 98,
    "ร": 99,
    "ล": 100,
    "ั": 101,
    "า": 102,
    "ิ": 103,
    "่": 104,
    "์": 105,
    "ṯ": 106,
    "–": 107,
    "—": 108,
    "‘": 109,
    "’": 110,
    "“": 111,
    "”": 112,
    "†": 113,
    "…": 114,
    "⁄": 115,
    "₤": 116,
    "₹": 117,
    "→": 118,
    "−": 119,
    "の": 120,
    "ァ": 121,
    "ア": 122,
    "キ": 123,
    "ュ": 124,
    "リ": 125,
    "ル": 126,
    "ヴ": 127,
    "場": 128,
    "戦": 129,
    "th": 130,
    "in": 131,
    "the": 132,
    "an": 133,
    "er": 134,
    "on": 135,
    "ed": 136,
    "re": 137,
    "un": 138,
    "at": 139,
    "or": 140,
    "st": 141,
    "al": 142,
    "en": 143,
    "ar": 144,
    "as": 145,
    "of": 146,
    "and": 147,
    "unk": 148,
    "is": 149,
    "it": 150,
    "ing": 151,
    "to": 152,
    "es": 153,
    "ic": 154,
    "ro": 155,
    "ion": 156,
    "le": 157,
    "ch": 158,
    "se": 159,
    "ou": 160,
    "ent": 161,
    "il": 162,
    "ad": 163,
    "am": 164,
    "be": 165,
    "co": 166,
    "for": 167,
    "ac": 168,
    "he": 169,
    "was": 170,
    "ly": 171,
    "de": 172,
    "lo": 173,
    "ve": 174,
    "ur": 175,
    "ir": 176,
    "im": 177,
    "wi": 178,
    "wh": 179,
    "ol": 180,
    "with": 181,
    "ig": 182,
    "ation": 183,
    "ay": 184,
    "ver": 185,
    "con": 186,
    "that": 187,
    "ter": 188,
    "ce": 189,
    "ag": 190,
    "te": 191,
    "by": 192,
    "ct": 193,
    "no": 194,
    "ul": 195,
    "me": 196,
    "us": 197,
    "id": 198,
    "ra": 199,
    "so": 200,
    "ist": 201,
    "um": 202,
    "mo": 203,
    "sh": 204,
    "19": 205,
    "pe": 206,
    "po": 207,
    "el": 208,
    "pl": 209,
    "wer": 210,
    "pro": 211,
    "res": 212,
    "all": 213,
    "00": 214,
    "com": 215,
    "ne": 216,
    "his": 217,
    "rom": 218,
    "per": 219,
    "su": 220,
    "ab": 221,
    "ri": 222,
    "are": 223,
    "ut": 224,
    "und": 225,
    "di": 226,
    "from": 227,
    "ain": 228,
    "ap": 229,
    "ts": 230,
    "ther": 231,
    "were": 232,
    "fe": 233,
    "cl": 234,
    "ke": 235,
    "ies": 236,
    "ate": 237,
    "ber": 238,
    "ge": 239,
    "we": 240,
    "od": 241,
    "ord": 242,
    "ich": 243,
    "tr": 244,
    "ex": 245,
    "li": 246,
    "art": 247,
    "man": 248,
    "igh": 249,
    "ish": 250,
    "ated": 251,
    "end": 252,
    "ity": 253,
    "wn": 254,
    "gh": 255,
    "ted": 256,
    "ment": 257,
    "ers": 258,
    "por": 259,
    "ld": 260,
    "one": 261,
    "ame": 262,
    "ant": 263,
    "ear": 264,
    "bo": 265,
    "av": 266,
    "af": 267,
    "which": 268,
    "had": 269,
    "ong": 270,
    "qu": 271,
    "ho": 272,
    "her": 273,
    "ard": 274,
    "up": 275,
    "rit": 276,
    "ill": 277,
    "iv": 278,
    "ast": 279,
    "ess": 280,
    "ive": 281,
    "act": 282,
    "our": 283,
    "out": 284,
    "wo": 285,
    "au": 286,
    "ial": 287,
    "ip": 288,
    "ia": 289,
    "str": 290,
    "wor": 291,
    "20": 292,
    "ie": 293,
    "she": 294,
    "ass": 295,
    "op": 296,
    "fo": 297,
    "its": 298,
    "tim": 299,
    "ave": 300,
    "bl": 301,
    "ary": 302,
    "du": 303,
    "200": 304,
    "but": 305,
    "not": 306,
    "ian": 307,
    "ine": 308,
    "do": 309,
    "this": 310,
    "also": 311,
    "air": 312,
    "ical": 313,
    "has": 314,
    "ack": 315,
    "fir": 316,
    "em": 317,
    "if": 318,
    "ak": 319,
    "off": 320,
    "go": 321,
    "after": 322,
    "their": 323,
    "ud": 324,
    "play": 325,
    "other": 326,
    "form": 327,
    "new": 328,
    "ight": 329,
    "port": 330,
    "who": 331,
    "ign": 332,
    "min": 333,
    "rec": 334,
    "ach": 335,
    "pres": 336,
    "mar": 337,
    "fin": 338,
    "two": 339,
    "ous": 340,
    "ree": 341,
    "201": 342,
    "ser": 343,
    "first": 344,
    "sc": 345,
    "pr": 346,
    "ure": 347,
    "18": 348,
    "age": 349,
    "low": 350,
    "ition": 351,
    "ater": 352,
    "comm": 353,
    "aw": 354,
    "ide": 355,
    "pol": 356,
    "des": 357,
    "mber": 358,
    "ll": 359,
    "ran": 360,
    "ould": 361,
    "ty": 362,
    "ph": 363,
    "gro": 364,
    "year": 365,
    "gu": 366,
    "pt": 367,
    "part": 368,
    "ction": 369,
    "they": 370,
    "fer": 371,
    "ory": 372,
    "ship": 373,
    "have": 374,
    "uring": 375,
    "cont": 376,
    "ev": 377,
    "spe": 378,
    "rou": 379,
    "cre": 380,
    "ough": 381,
    "been": 382,
    "ck": 383,
    "land": 384,
    "ason": 385,
    "ally": 386,
    "pre": 387,
    "est": 388,
    "son": 389,
    "ite": 390,
    "pos": 391,
    "over": 392,
    "ans": 393,
    "cent": 394,
    "ue": 395,
    "ations": 396,
    "ok": 397,
    "nor": 398,
    "ma": 399,
    "mon": 400,
    "br": 401,
    "old": 402,
    "time": 403,
    "ence": 404,
    "dis": 405,
    "fil": 406,
    "under": 407,
    "ited": 408,
    "sho": 409,
    "during": 410,
    "ft": 411,
    "arch": 412,
    "par": 413,
    "inter": 414,
    "work": 415,
    "att": 416,
    "most": 417,
    "ved": 418,
    "ities": 419,
    "tur": 420,
    "ade": 421,
    "more": 422,
    "reg": 423,
    "main": 424,
    "ile": 425,
    "season": 426,
    "gen": 427,
    "sp": 428,
    "sa": 429,
    "incl": 430,
    "war": 431,
    "jo": 432,
    "record": 433,
    "film": 434,
    "can": 435,
    "than": 436,
    "lar": 437,
    "though": 438,
    "god": 439,
    "ased": 440,
    "ase": 441,
    "red": 442,
    "pu": 443,
    "ten": 444,
    "alb": 445,
    "je": 446,
    "ice": 447,
    "some": 448,
    "oc": 449,
    "ston": 450,
    "ced": 451,
    "log": 452,
    "album": 453,
    "ance": 454,
    "my": 455,
    "fl": 456,
    "able": 457,
    "iz": 458,
    "ste": 459,
    "publ": 460,
    "rough": 461,
    "char": 462,
    "ger": 463,
    "cond": 464,
    "ace": 465,
    "bec": 466,
    "may": 467,
    "ot": 468,
    "ents": 469,
    "him": 470,
    "bu": 471,
    "als": 472,
    "gan": 473,
    "ious": 474,
    "sing": 475,
    "ild": 476,
    "into": 477,
    "spec": 478,
    "ces": 479,
    "ple": 480,
    "there": 481,
    "city": 482,
    "stru": 483,
    "et": 484,
    "gal": 485,
    "win": 486,
    "used": 487,
    "col": 488,
    "sch": 489,
    "car": 490,
    "sy": 491,
    "ates": 492,
    "ren": 493,
    "them": 494,
    "cess": 495,
    "when": 496,
    "199": 497,
    "brit": 498,
    "includ": 499,
    "vie": 500,
    "jord": 501,
    "jordan": 502,
    "ped": 503,
    "cted": 504,
    "ick": 505,
    "ict": 506,
    "hist": 507,
    "second": 508,
    "team": 509,
    "olog": 510,
    "ern": 511,
    "ames": 512,
    "vers": 513,
    "sou": 514,
    "way": 515,
    "ton": 516,
    "rel": 517,
    "ied": 518,
    "only": 519,
    "ere": 520,
    "ular": 521,
    "four": 522,
    "ult": 523,
    "high": 524,
    "ss": 525,
    "produ": 526,
    "many": 527,
    "int": 528,
    "rele": 529,
    "ors": 530,
    "three": 531,
    "mus": 532,
    "num": 533,
    "ings": 534,
    "later": 535,
    "ell": 536,
    "ron": 537,
    "vis": 538,
    "while": 539,
    "loc": 540,
    "coun": 541,
    "les": 542,
    "game": 543,
    "fore": 544,
    "ix": 545,
    "whe": 546,
    "med": 547,
    "sur": 548,
    "long": 549,
    "gr": 550,
    "sub": 551,
    "ational": 552,
    "ib": 553,
    "would": 554,
    "through": 555,
    "ished": 556,
    "bet": 557,
    "ican": 558,
    "town": 559,
    "indi": 560,
    "again": 561,
    "ions": 562,
    "ae": 563,
    "mu": 564,
    "ned": 565,
    "ning": 566,
    "gre": 567,
    "ily": 568,
    "west": 569,
    "day": 570,
    "number": 571,
    "being": 572,
    "ru": 573,
    "writ": 574,
    "these": 575,
    "mal": 576,
    "about": 577,
    "wheel": 578,
    "kno": 579,
    "bar": 580,
    "wheeler": 581,
    "sel": 582,
    "cor": 583,
    "000": 584,
    "where": 585,
    "ered": 586,
    "soc": 587,
    "fol": 588,
    "ire": 589,
    "music": 590,
    "eng": 591,
    "om": 592,
    "tem": 593,
    "sever": 594,
    "cons": 595,
    "like": 596,
    "ba": 597,
    "archae": 598,
    "archaeolog": 599,
    "then": 600,
    "ins": 601,
    "such": 602,
    "gener": 603,
    "made": 604,
    "song": 605,
    "na": 606,
    "cra": 607,
    "ico": 608,
    "oper": 609,
    "mor": 610,
    "well": 611,
    "ull": 612,
    "king": 613,
    "bro": 614,
    "rect": 615,
    "betwe": 616,
    "between": 617,
    "galve": 618,
    "dep": 619,
    "ards": 620,
    "any": 621,
    "national": 622,
    "val": 623,
    "galveston": 624,
    "ele": 625,
    "ony": 626,
    "british": 627,
    "ju": 628,
    "led": 629,
    "present": 630,
    "world": 631,
    "amer": 632,
    "sign": 633,
    "follow": 634,
    "ating": 635,
    "ath": 636,
    "both": 637,
    "although": 638,
    "ry": 639,
    "cer": 640,
    "public": 641,
    "desc": 642,
    "var": 643,
    "state": 644,
    "gods": 645,
    "ens": 646,
    "lead": 647,
    "pop": 648,
    "years": 649,
    "ii": 650,
    "ork": 651,
    "mis": 652,
    "ail": 653,
    "back": 654,
    "york": 655,
    "serv": 656,
    "tra": 657,
    "sup": 658,
    "north": 659,
    "ual": 660,
    "add": 661,
    "gra": 662,
    "care": 663,
    "met": 664,
    "tain": 665,
    "several": 666,
    "der": 667,
    "east": 668,
    "chr": 669,
    "sm": 670,
    "descri": 671,
    "ross": 672,
    "dif": 673,
    "class": 674,
    "early": 675,
    "tre": 676,
    "appe": 677,
    "united": 678,
    "ball": 679,
    "orig": 680,
    "view": 681,
    "call": 682,
    "ef": 683,
    "iel": 684,
    "ics": 685,
    "ose": 686,
    "set": 687,
    "before": 688,
    "star": 689,
    "gy": 690,
    "ung": 691,
    "ters": 692,
    "10": 693,
    "clo": 694,
    "south": 695,
    "la": 696,
    "nam": 697,
    "uni": 698,
    "ject": 699,
    "cur": 700,
    "ific": 701,
    "bed": 702,
    "scho": 703,
    "school": 704,
    "origin": 705,
    "dist": 706,
    "lit": 707,
    "ven": 708,
    "nove": 709,
    "large": 710,
    "very": 711,
    "offic": 712,
    "194": 713,
    "became": 714,
    "crit": 715,
    "show": 716,
    "ind": 717,
    "mark": 718,
    "arn": 719,
    "known": 720,
    "198": 721,
    "towns": 722,
    "sen": 723,
    "christ": 724,
    "vol": 725,
    "remain": 726,
    "ause": 727,
    "polish": 728,
    "ined": 729,
    "howe": 730,
    "however": 731,
    "fur": 732,
    "began": 733,
    "contin": 734,
    "cap": 735,
    "sed": 736,
    "feat": 737,
    "found": 738,
    "ague": 739,
    "uary": 740,
    "ised": 741,
    "ang": 742,
    "ute": 743,
    "rap": 744,
    "including": 745,
    "antim": 746,
    "rece": 747,
    "ep": 748,
    "said": 749,
    "30": 750,
    "townsend": 751,
    "velo": 752,
    "trans": 753,
    "own": 754,
    "peop": 755,
    "people": 756,
    "ures": 757,
    "peri": 758,
    "self": 759,
    "sion": 760,
    "ident": 761,
    "appear": 762,
    "cav": 763,
    "ob": 764,
    "german": 765,
    "best": 766,
    "against": 767,
    "charac": 768,
    "direct": 769,
    "egy": 770,
    "book": 771,
    "15": 772,
    "fle": 773,
    "develo": 774,
    "unt": 775,
    "power": 776,
    "nico": 777,
    "nicole": 778,
    "amp": 779,
    "member": 780,
    "could": 781,
    "ird": 782,
    "vid": 783,
    "history": 784,
    "states": 785,
    "mas": 786,
    "ise": 787,
    "ca": 788,
    "tri": 789,
    "ond": 790,
    "antimony": 791,
    "ists": 792,
    "plan": 793,
    "tle": 794,
    "pri": 795,
    "mill": 796,
    "ground": 797,
    "league": 798,
    "egypt": 799,
    "released": 800,
    "ived": 801,
    "az": 802,
    "men": 803,
    "group": 804,
    "build": 805,
    "mb": 806,
    "island": 807,
    "come": 808,
    "suc": 809,
    "ative": 810,
    "near": 811,
    "down": 812,
    "ful": 813,
    "io": 814,
    "ional": 815,
    "gover": 816,
    "sarn": 817,
    "sarnia": 818,
    "ield": 819,
    "ort": 820,
    "iation": 821,
    "ized": 822,
    "roy": 823,
    "home": 824,
    "fam": 825,
    "dra": 826,
    "line": 827,
    "ments": 828,
    "ury": 829,
    "hum": 830,
    "gold": 831,
    "head": 832,
    "joh": 833,
    "acc": 834,
    "sin": 835,
    "area": 836,
    "ga": 837,
    "series": 838,
    "retur": 839,
    "times": 840,
    "dec": 841,
    "cut": 842,
    "design": 843,
    "each": 844,
    "place": 845,
    "17": 846,
    "success": 847,
    "list": 848,
    "ired": 849,
    "12": 850,
    "colle": 851,
    "gun": 852,
    "bre": 853,
    "mil": 854,
    "comple": 855,
    "ek": 856,
    "light": 857,
    "rock": 858,
    "vide": 859,
    "aking": 860,
    "person": 861,
    "ting": 862,
    "ended": 863,
    "cial": 864,
    "career": 865,
    "fey": 866,
    "batt": 867,
    "john": 868,
    "ub": 869,
    "cour": 870,
    "mat": 871,
    "scor": 872,
    "along": 873,
    "ves": 874,
    "following": 875,
    "constru": 876,
    "site": 877,
    "urch": 878,
    "because": 879,
    "same": 880,
    "aged": 881,
    "six": 882,
    "ines": 883,
    "small": 884,
    "species": 885,
    "univers": 886,
    "ships": 887,
    "field": 888,
    "open": 889,
    "comp": 890,
    "top": 891,
    "hal": 892,
    "inst": 893,
    "poin": 894,
    "craft": 895,
    "tru": 896,
    "stand": 897,
    "prev": 898,
    "played": 899,
    "differ": 900,
    "ital": 901,
    "you": 902,
    "ith": 903,
    "giv": 904,
    "tal": 905,
    "kel": 906,
    "cup": 907,
    "tex": 908,
    "hel": 909,
    "five": 910,
    "blo": 911,
    "50": 912,
    "sk": 913,
    "sted": 914,
    "named": 915,
    "use": 916,
    "bus": 917,
    "ument": 918,
    "ta": 919,
    "sim": 920,
    "did": 921,
    "plac": 922,
    "13": 923,
    "described": 924,
    "bas": 925,
    "aircraft": 926,
    "command": 927,
    "partic": 928,
    "week": 929,
    "fran": 930,
    "ually": 931,
    "general": 932,
    "incre": 933,
    "american": 934,
    "row": 935,
    "stein": 936,
    "hou": 937,
    "track": 938,
    "mer": 939,
    "called": 940,
    "ms": 941,
    "child": 942,
    "dol": 943,
    "contro": 944,
    "squ": 945,
    "little": 946,
    "start": 947,
    "ported": 948,
    "another": 949,
    "finkel": 950,
    "finkelstein": 951,
    "november": 952,
    "will": 953,
    "maj": 954,
    "ark": 955,
    "pat": 956,
    "name": 957,
    "cy": 958,
    "fa": 959,
    "histor": 960,
    "cover": 961,
    "project": 962,
    "rang": 963,
    "represent": 964,
    "life": 965,
    "14": 966,
    "formed": 967,
    "deities": 968,
    "addition": 969,
    "ving": 970,
    "yo": 971,
    "fac": 972,
    "193": 973,
    "ys": 974,
    "christmas": 975,
    "indu": 976,
    "pen": 977,
    "games": 978,
    "plo": 979,
    "une": 980,
    "ash": 981,
    "flo": 982,
    "since": 983,
    "2013": 984,
    "egyptian": 985,
    "received": 986,
    "action": 987,
    "ral": 988,
    "bor": 989,
    "aim": 990,
    "stu": 991,
    "vision": 992,
    "position": 993,
    "chan": 994,
    "11": 995,
    "ping": 996,
    "dollar": 997,
    "video": 998,
    "less": 999,
    "major": 1000,
    "issu": 1001,
    "gust": 1002,
    "even": 1003,
    "hy": 1004,
    "mi": 1005,
    "cle": 1006,
    "million": 1007,
    "jan": 1008,
    "eu": 1009,
    "character": 1010,
    "side": 1011,
    "based": 1012,
    "ked": 1013,
    "rum": 1014,
    "assoc": 1015,
    "16": 1016,
    "192": 1017,
    "those": 1018,
    "single": 1019,
    "tro": 1020,
    "now": 1021,
    "order": 1022,
    "pass": 1023,
    "ali": 1024,
    "def": 1025,
    "university": 1026,
    "male": 1027,
    "post": 1028,
    "continu": 1029,
    "gl": 1030,
    "wal": 1031,
    "ress": 1032,
    "aro": 1033,
    "short": 1034,
    "ble": 1035,
    "ime": 1036,
    "much": 1037,
    "period": 1038,
    "ilt": 1039,
    "govern": 1040,
    "round": 1041,
    "organ": 1042,
    "band": 1043,
    "2007": 1044,
    "ica": 1045,
    "hand": 1046,
    "original": 1047,
    "ible": 1048,
    "sep": 1049,
    "ril": 1050,
    "prof": 1051,
    "dam": 1052,
    "james": 1053,
    "key": 1054,
    "pa": 1055,
    "octo": 1056,
    "october": 1057,
    "197": 1058,
    "church": 1059,
    "mad": 1060,
    "polit": 1061,
    "ient": 1062,
    "resp": 1063,
    "consid": 1064,
    "left": 1065,
    "foot": 1066,
    "ically": 1067,
    "dece": 1068,
    "vin": 1069,
    "nathan": 1070,
    "went": 1071,
    "just": 1072,
    "leg": 1073,
    "april": 1074,
    "half": 1075,
    "abl": 1076,
    "beli": 1077,
    "heav": 1078,
    "award": 1079,
    "within": 1080,
    "ility": 1081,
    "review": 1082,
    "away": 1083,
    "hl": 1084,
    "third": 1085,
    "black": 1086,
    "appro": 1087,
    "hav": 1088,
    "ons": 1089,
    "last": 1090,
    "septe": 1091,
    "september": 1092,
    "government": 1093,
    "sit": 1094,
    "try": 1095,
    "ban": 1096,
    "real": 1097,
    "ulation": 1098,
    "around": 1099,
    "read": 1100,
    "what": 1101,
    "requ": 1102,
    "moved": 1103,
    "muse": 1104,
    "museum": 1105,
    "building": 1106,
    "ris": 1107,
    "canad": 1108,
    "december": 1109,
    "commun": 1110,
    "euro": 1111,
    "que": 1112,
    "graph": 1113,
    "august": 1114,
    "nat": 1115,
    "establ": 1116,
    "ently": 1117,
    "iety": 1118,
    "excav": 1119,
    "ially": 1120,
    "get": 1121,
    "took": 1122,
    "sty": 1123,
    "june": 1124,
    "built": 1125,
    "ker": 1126,
    "route": 1127,
    "posed": 1128,
    "house": 1129,
    "ward": 1130,
    "stri": 1131,
    "trad": 1132,
    "stud": 1133,
    "thern": 1134,
    "aml": 1135,
    "run": 1136,
    "previous": 1137,
    "lim": 1138,
    "uk": 1139,
    "ls": 1140,
    "syn": 1141,
    "accord": 1142,
    "ism": 1143,
    "ket": 1144,
    "iva": 1145,
    "included": 1146,
    "infl": 1147,
    "often": 1148,
    "human": 1149,
    "bur": 1150,
    "india": 1151,
    "shiva": 1152,
    "nba": 1153,
    "different": 1154,
    "activ": 1155,
    "stated": 1156,
    "den": 1157,
    "auth": 1158,
    "family": 1159,
    "pal": 1160,
    "import": 1161,
    "tar": 1162,
    "lay": 1163,
    "ret": 1164,
    "fact": 1165,
    "cru": 1166,
    "water": 1167,
    "mot": 1168,
    "until": 1169,
    "according": 1170,
    "van": 1171,
    "km": 1172,
    "studi": 1173,
    "europe": 1174,
    "2011": 1175,
    "release": 1176,
    "ified": 1177,
    "dest": 1178,
    "prote": 1179,
    "sco": 1180,
    "located": 1181,
    "club": 1182,
    "won": 1183,
    "truj": 1184,
    "trujil": 1185,
    "trujillo": 1186,
    "2010": 1187,
    "camp": 1188,
    "young": 1189,
    "ado": 1190,
    "tele": 1191,
    "construction": 1192,
    "former": 1193,
    "due": 1194,
    "rest": 1195,
    "fic": 1196,
    "thing": 1197,
    "great": 1198,
    "cept": 1199,
    "init": 1200,
    "mag": 1201,
    "lan": 1202,
    "nav": 1203,
    "mid": 1204,
    "corn": 1205,
    "196": 1206,
    "2006": 1207,
    "story": 1208,
    "director": 1209,
    "support": 1210,
    "wing": 1211,
    "ody": 1212,
    "ude": 1213,
    "base": 1214,
    "claim": 1215,
    "fri": 1216,
    "given": 1217,
    "ports": 1218,
    "ining": 1219,
    "acad": 1220,
    "academ": 1221,
    "erson": 1222,
    "january": 1223,
    "squad": 1224,
    "members": 1225,
    "army": 1226,
    "make": 1227,
    "pect": 1228,
    "25": 1229,
    "century": 1230,
    "published": 1231,
    "sug": 1232,
    "roman": 1233,
    "role": 1234,
    "milit": 1235,
    "player": 1236,
    "ately": 1237,
    "nex": 1238,
    "tit": 1239,
    "anti": 1240,
    "cus": 1241,
    "wro": 1242,
    "wrote": 1243,
    "195": 1244,
    "late": 1245,
    "lls": 1246,
    "ero": 1247,
    "losa": 1248,
    "uke": 1249,
    "battle": 1250,
    "throughout": 1251,
    "point": 1252,
    "produced": 1253,
    "pur": 1254,
    "search": 1255,
    "ural": 1256,
    "further": 1257,
    "month": 1258,
    "bill": 1259,
    "instit": 1260,
    "ution": 1261,
    "sol": 1262,
    "seven": 1263,
    "recorded": 1264,
    "particular": 1265,
    "author": 1266,
    "har": 1267,
    "ages": 1268,
    "influ": 1269,
    "sugge": 1270,
    "2009": 1271,
    "anderson": 1272,
    "tak": 1273,
    "sal": 1274,
    "local": 1275,
    "stem": 1276,
    "fel": 1277,
    "blue": 1278,
    "40": 1279,
    "came": 1280,
    "ago": 1281,
    "cul": 1282,
    "rul": 1283,
    "right": 1284,
    "vo": 1285,
    "sequ": 1286,
    "held": 1287,
    "board": 1288,
    "goal": 1289,
    "ator": 1290,
    "ches": 1291,
    "2008": 1292,
    "tour": 1293,
    "fr": 1294,
    "sound": 1295,
    "fig": 1296,
    "fron": 1297,
    "invol": 1298,
    "ided": 1299,
    "final": 1300,
    "noted": 1301,
    "cas": 1302,
    "event": 1303,
    "186": 1304,
    "march": 1305,
    "allow": 1306,
    "iron": 1307,
    "attem": 1308,
    "commer": 1309,
    "mix": 1310,
    "perfor": 1311,
    "performan": 1312,
    "sap": 1313,
    "military": 1314,
    "western": 1315,
    "da": 1316,
    "desp": 1317,
    "despite": 1318,
    "production": 1319,
    "ds": 1320,
    "road": 1321,
    "uc": 1322,
    "profess": 1323,
    "ley": 1324,
    "chart": 1325,
    "ina": 1326,
    "saprang": 1327,
    "ending": 1328,
    "ribut": 1329,
    "ides": 1330,
    "central": 1331,
    "placed": 1332,
    "ner": 1333,
    "father": 1334,
    "colum": 1335,
    "death": 1336,
    "prim": 1337,
    "ights": 1338,
    "reach": 1339,
    "vi": 1340,
    "lond": 1341,
    "london": 1342,
    "leuke": 1343,
    "love": 1344,
    "ilar": 1345,
    "still": 1346,
    "ences": 1347,
    "seen": 1348,
    "night": 1349,
    "relation": 1350,
    "hur": 1351,
    "operations": 1352,
    "develop": 1353,
    "free": 1354,
    "ns": 1355,
    "fect": 1356,
    "popular": 1357,
    "tower": 1358,
    "among": 1359,
    "police": 1360,
    "abo": 1361,
    "sist": 1362,
    "relig": 1363,
    "tor": 1364,
    "result": 1365,
    "say": 1366,
    "ium": 1367,
    "archaeological": 1368,
    "take": 1369,
    "points": 1370,
    "ks": 1371,
    "force": 1372,
    "next": 1373,
    "similar": 1374,
    "live": 1375,
    "continued": 1376,
    "ai": 1377,
    "hold": 1378,
    "sent": 1379,
    "ends": 1380,
    "lled": 1381,
    "ps": 1382,
    "plain": 1383,
    "cir": 1384,
    "important": 1385,
    "spo": 1386,
    "pil": 1387,
    "fleet": 1388,
    "monument": 1389,
    "system": 1390,
    "ured": 1391,
    "front": 1392,
    "fed": 1393,
    "wood": 1394,
    "21": 1395,
    "commercial": 1396,
    "fly": 1397,
    "jew": 1398,
    "ison": 1399,
    "texas": 1400,
    "station": 1401,
    "stor": 1402,
    "having": 1403,
    "uments": 1404,
    "fun": 1405,
    "leve": 1406,
    "ices": 1407,
    "gn": 1408,
    "hour": 1409,
    "fren": 1410,
    "awards": 1411,
    "exam": 1412,
    "archaeology": 1413,
    "stat": 1414,
    "cr": 1415,
    "2012": 1416,
    "ively": 1417,
    "style": 1418,
    "critic": 1419,
    "poss": 1420,
    "songs": 1421,
    "tract": 1422,
    "vent": 1423,
    "reported": 1424,
    "various": 1425,
    "depart": 1426,
    "days": 1427,
    "gir": 1428,
    "pho": 1429,
    "scored": 1430,
    "squadron": 1431,
    "french": 1432,
    "returned": 1433,
    "without": 1434,
    "become": 1435,
    "ben": 1436,
    "considered": 1437,
    "pted": 1438,
    "ctions": 1439,
    "agre": 1440,
    "signed": 1441,
    "0s": 1442,
    "white": 1443,
    "press": 1444,
    "every": 1445,
    "graf": 1446,
    "ky": 1447,
    "itch": 1448,
    "ram": 1449,
    "gin": 1450,
    "div": 1451,
    "hind": 1452,
    "signific": 1453,
    "minist": 1454,
    "eastern": 1455,
    "cult": 1456,
    "markgraf": 1457,
    "furt": 1458,
    "furtado": 1459,
    "epis": 1460,
    "typ": 1461,
    "never": 1462,
    "female": 1463,
    "atter": 1464,
    "quar": 1465,
    "ckey": 1466,
    "civ": 1467,
    "hor": 1468,
    "president": 1469,
    "common": 1470,
    "strong": 1471,
    "ford": 1472,
    "ken": 1473,
    "sex": 1474,
    "ples": 1475,
    "hol": 1476,
    "rican": 1477,
    "far": 1478,
    "nhl": 1479,
    "dom": 1480,
    "formation": 1481,
    "saw": 1482,
    "leukem": 1483,
    "underground": 1484,
    "shol": 1485,
    "sholay": 1486,
    "refer": 1487,
    "cret": 1488,
    "vided": 1489,
    "himself": 1490,
    "cro": 1491,
    "febr": 1492,
    "february": 1493,
    "23": 1494,
    "put": 1495,
    "stone": 1496,
    "women": 1497,
    "society": 1498,
    "jac": 1499,
    "eight": 1500,
    "population": 1501,
    "cou": 1502,
    "100": 1503,
    "teen": 1504,
    "britain": 1505,
    "ria": 1506,
    "once": 1507,
    "mater": 1508,
    "feder": 1509,
    "civil": 1510,
    "should": 1511,
    "indian": 1512,
    "believ": 1513,
    "guns": 1514,
    "san": 1515,
    "compe": 1516,
    "clear": 1517,
    "eat": 1518,
    "hockey": 1519,
    "bull": 1520,
    "rad": 1521,
    "urus": 1522,
    "outs": 1523,
    "individ": 1524,
    "ried": 1525,
    "using": 1526,
    "successful": 1527,
    "bal": 1528,
    "include": 1529,
    "wall": 1530,
    "bel": 1531,
    "occup": 1532,
    "educ": 1533,
    "got": 1534,
    "ival": 1535,
    "voc": 1536,
    "2015": 1537,
    "ann": 1538,
    "sb": 1539,
    "crake": 1540,
    "developed": 1541,
    "forces": 1542,
    "sele": 1543,
    "fire": 1544,
    "upon": 1545,
    "sum": 1546,
    "arsen": 1547,
    "served": 1548,
    "company": 1549,
    "fair": 1550,
    "range": 1551,
    "che": 1552,
    "july": 1553,
    "comed": 1554,
    "decl": 1555,
    "blood": 1556,
    "2014": 1557,
    "regular": 1558,
    "scen": 1559,
    "material": 1560,
    "eding": 1561,
    "too": 1562,
    "bon": 1563,
    "py": 1564,
    "equ": 1565,
    "abor": 1566,
    "country": 1567,
    "above": 1568,
    "born": 1569,
    "190": 1570,
    "feet": 1571,
    "close": 1572,
    "coach": 1573,
    "break": 1574,
    "kingdom": 1575,
    "treat": 1576,
    "iness": 1577,
    "divine": 1578,
    "metal": 1579,
    "development": 1580,
    "raised": 1581,
    "cu": 1582,
    "attack": 1583,
    "vict": 1584,
    "fort": 1585,
    "nal": 1586,
    "television": 1587,
    "cast": 1588,
    "park": 1589,
    "sto": 1590,
    "pair": 1591,
    "187": 1592,
    "fif": 1593,
    "association": 1594,
    "children": 1595,
    "stral": 1596,
    "type": 1597,
    "aver": 1598,
    "writing": 1599,
    "cat": 1600,
    "cruis": 1601,
    "aer": 1602,
    "isra": 1603,
    "israel": 1604,
    "sovie": 1605,
    "making": 1606,
    "players": 1607,
    "move": 1608,
    "destroy": 1609,
    "ster": 1610,
    "body": 1611,
    "leading": 1612,
    "enter": 1613,
    "sure": 1614,
    "how": 1615,
    "established": 1616,
    "exe": 1617,
    "24": 1618,
    "hib": 1619,
    "center": 1620,
    "augh": 1621,
    "sts": 1622,
    "dre": 1623,
    "ka": 1624,
    "ez": 1625,
    "ctor": 1626,
    "itz": 1627,
    "valky": 1628,
    "valkyria": 1629,
    "lin": 1630,
    "records": 1631,
    "interest": 1632,
    "events": 1633,
    "ption": 1634,
    "uals": 1635,
    "prin": 1636,
    "others": 1637,
    "ars": 1638,
    "stead": 1639,
    "let": 1640,
    "wide": 1641,
    "coll": 1642,
    "ham": 1643,
    "atory": 1644,
    "phil": 1645,
    "royal": 1646,
    "amb": 1647,
    "contract": 1648,
    "fall": 1649,
    "unds": 1650,
    "date": 1651,
    "tradition": 1652,
    "eaton": 1653,
    "bulls": 1654,
    "iii": 1655,
    "ither": 1656,
    "ways": 1657,
    "consist": 1658,
    "works": 1659,
    "inv": 1660,
    "kill": 1661,
    "written": 1662,
    "good": 1663,
    "enced": 1664,
    "behind": 1665,
    "don": 1666,
    "ael": 1667,
    "austral": 1668,
    "football": 1669,
    "international": 1670,
    "iated": 1671,
    "wil": 1672,
    "least": 1673,
    "deal": 1674,
    "sil": 1675,
    "sour": 1676,
    "political": 1677,
    "films": 1678,
    "han": 1679,
    "relationship": 1680,
    "aust": 1681,
    "canada": 1682,
    "ox": 1683,
    "control": 1684,
    "idence": 1685,
    "loss": 1686,
    "full": 1687,
    "thought": 1688,
    "goals": 1689,
    "ier": 1690,
    "performed": 1691,
    "significant": 1692,
    "earli": 1693,
    "os": 1694,
    "southern": 1695,
    "icated": 1696,
    "ness": 1697,
    "ny": 1698,
    "reco": 1699,
    "schol": 1700,
    "ize": 1701,
    "training": 1702,
    "stones": 1703,
    "mich": 1704,
    "gram": 1705,
    "mm": 1706,
    "covered": 1707,
    "sul": 1708,
    "itted": 1709,
    "special": 1710,
    "ff": 1711,
    "xim": 1712,
    "wan": 1713,
    "dou": 1714,
    "sis": 1715,
    "union": 1716,
    "historic": 1717,
    "kets": 1718,
    "across": 1719,
    "ray": 1720,
    "contain": 1721,
    "curren": 1722,
    "ha": 1723,
    "see": 1724,
    "hip": 1725,
    "court": 1726,
    "clark": 1727,
    "excavation": 1728,
    "personal": 1729,
    "toge": 1730,
    "together": 1731,
    "mod": 1732,
    "felt": 1733,
    "official": 1734,
    "taken": 1735,
    "instead": 1736,
    "lling": 1737,
    "total": 1738,
    "river": 1739,
    "ably": 1740,
    "distr": 1741,
    "fav": 1742,
    "priv": 1743,
    "schools": 1744,
    "rus": 1745,
    "aten": 1746,
    "pointed": 1747,
    "wins": 1748,
    "sav": 1749,
    "effect": 1750,
    "community": 1751,
    "performance": 1752,
    "stry": 1753,
    "flying": 1754,
    "dies": 1755,
    "domin": 1756,
    "tural": 1757,
    "playing": 1758,
    "secret": 1759,
    "grow": 1760,
    "gave": 1761,
    "novel": 1762,
    "coming": 1763,
    "ged": 1764,
    "ission": 1765,
    "ination": 1766,
    "started": 1767,
    "few": 1768,
    "mother": 1769,
    "ye": 1770,
    "geor": 1771,
    "broad": 1772,
    "surv": 1773,
    "subsequ": 1774,
    "dav": 1775,
    "version": 1776,
    "county": 1777,
    "layer": 1778,
    "struck": 1779,
    "nand": 1780,
    "operation": 1781,
    "cold": 1782,
    "chron": 1783,
    "icles": 1784,
    "outside": 1785,
    "exp": 1786,
    "alth": 1787,
    "pot": 1788,
    "mean": 1789,
    "comb": 1790,
    "created": 1791,
    "struct": 1792,
    "decided": 1793,
    "originally": 1794,
    "standing": 1795,
    "ode": 1796,
    "suf": 1797,
    "ances": 1798,
    "commission": 1799,
    "commander": 1800,
    "emplo": 1801,
    "case": 1802,
    "estim": 1803,
    "debut": 1804,
    "academy": 1805,
    "michael": 1806,
    "60": 1807,
    "industry": 1808,
    "gue": 1809,
    "jewish": 1810,
    "gress": 1811,
    "hap": 1812,
    "chang": 1813,
    "22": 1814,
    "exist": 1815,
    "wards": 1816,
    "impro": 1817,
    "tail": 1818,
    "rich": 1819,
    "iting": 1820,
    "episode": 1821,
    "net": 1822,
    "itions": 1823,
    "research": 1824,
    "bert": 1825,
    "conne": 1826,
    "shot": 1827,
    "navy": 1828,
    "activities": 1829,
    "remained": 1830,
    "memor": 1831,
    "dev": 1832,
    "ention": 1833,
    "vill": 1834,
    "sl": 1835,
    "scoring": 1836,
    "believed": 1837,
    "bc": 1838,
    "storm": 1839,
    "stree": 1840,
    "fernand": 1841,
    "mass": 1842,
    "cull": 1843,
    "business": 1844,
    "albums": 1845,
    "gas": 1846,
    "institute": 1847,
    "clarkson": 1848,
    "allosa": 1849,
    "promo": 1850,
    "writer": 1851,
    "ives": 1852,
    "spir": 1853,
    "idge": 1854,
    "80": 1855,
    "word": 1856,
    "level": 1857,
    "jackets": 1858,
    "cm": 1859,
    "reached": 1860,
    "ues": 1861,
    "fru": 1862,
    "recording": 1863,
    "shown": 1864,
    "cullen": 1865,
    "tric": 1866,
    "transport": 1867,
    "caves": 1868,
    "poland": 1869,
    "pred": 1870,
    "limited": 1871,
    "begin": 1872,
    "finished": 1873,
    "parts": 1874,
    "forms": 1875,
    "modern": 1876,
    "reve": 1877,
    "save": 1878,
    "ying": 1879,
    "inj": 1880,
    "officers": 1881,
    "complete": 1882,
    "service": 1883,
    "barker": 1884,
    "closed": 1885,
    "ring": 1886,
    "coast": 1887,
    "appeared": 1888,
    "recogn": 1889,
    "ats": 1890,
    "shr": 1891,
    "econ": 1892,
    "liam": 1893,
    "thin": 1894,
    "playoff": 1895,
    "college": 1896,
    "anta": 1897,
    "demon": 1898,
    "damage": 1899,
    "viol": 1900,
    "earth": 1901,
    "america": 1902,
    "scul": 1903,
    "cham": 1904,
    "chamber": 1905,
    "basket": 1906,
    "soviet": 1907,
    "geoff": 1908,
    "dershow": 1909,
    "dershowitz": 1910,
    "hit": 1911,
    "characters": 1912,
    "igned": 1913,
    "either": 1914,
    "issue": 1915,
    "ata": 1916,
    "anno": 1917,
    "ched": 1918,
    "gar": 1919,
    "90": 1920,
    "ots": 1921,
    "died": 1922,
    "private": 1923,
    "disc": 1924,
    "nel": 1925,
    "fail": 1926,
    "44": 1927,
    "appointed": 1928,
    "joined": 1929,
    "bay": 1930,
    "comedy": 1931,
    "conc": 1932,
    "intro": 1933,
    "monuments": 1934,
    "metric": 1935,
    "mex": 1936,
    "madero": 1937,
    "uran": 1938,
    "cave": 1939,
    "tomb": 1940,
    "tonin": 1941,
    "toniná": 1942,
    "pan": 1943,
    "hon": 1944,
    "compo": 1945,
    "does": 1946,
    "dan": 1947,
    "cal": 1948,
    "look": 1949,
    "ought": 1950,
    "jour": 1951,
    "cho": 1952,
    "particularly": 1953,
    "wat": 1954,
    "arsenal": 1955,
    "completed": 1956,
    "cutive": 1957,
    "district": 1958,
    "brough": 1959,
    "pared": 1960,
    "office": 1961,
    "prior": 1962,
    "pare": 1963,
    "45": 1964,
    "lot": 1965,
    "dro": 1966,
    "david": 1967,
    "twent": 1968,
    "crew": 1969,
    "report": 1970,
    "culture": 1971,
    "fest": 1972,
    "leukemia": 1973,
    "ithic": 1974,
    "allosaurus": 1975,
    "ese": 1976,
    "return": 1977,
    "occur": 1978,
    "help": 1979,
    "face": 1980,
    "emp": 1981,
    "staf": 1982,
    "ref": 1983,
    "need": 1984,
    "initially": 1985,
    "pie": 1986,
    "non": 1987,
    "damaged": 1988,
    "natural": 1989,
    "ery": 1990,
    "lines": 1991,
    "hall": 1992,
    "opened": 1993,
    "soon": 1994,
    "room": 1995,
    "largest": 1996,
    "professional": 1997,
    "ling": 1998,
    "wife": 1999,
    "sometimes": 2000,
    "religious": 2001,
    "hill": 2002,
    "mes": 2003,
    "ape": 2004,
    "resul": 2005,
    "stra": 2006,
    "ators": 2007,
    "remains": 2008,
    "followed": 2009,
    "law": 2010,
    "fernandez": 2011,
    "ander": 2012,
    "depic": 2013,
    "ians": 2014,
    "aviation": 2015,
    "coins": 2016,
    "olf": 2017,
    "anim": 2018,
    "revol": 2019,
    "grad": 2020,
    "minor": 2021,
    "nine": 2022,
    "armor": 2023,
    "ared": 2024,
    "transfer": 2025,
    "ilities": 2026,
    "ability": 2027,
    "ior": 2028,
    "ric": 2029,
    "draw": 2030,
    "lost": 2031,
    "department": 2032,
    "brought": 2033,
    "change": 2034,
    "pain": 2035,
    "chic": 2036,
    "chicago": 2037,
    "education": 2038,
    "fund": 2039,
    "adm": 2040,
    "ever": 2041,
    "nar": 2042,
    "region": 2043,
    "earlier": 2044,
    "olic": 2045,
    "critical": 2046,
    "appl": 2047,
    "rapped": 2048,
    "surve": 2049,
    "aerod": 2050,
    "ko": 2051,
    "regime": 2052,
    "cultural": 2053,
    "basketball": 2054,
    "bird": 2055,
    "barrow": 2056,
    "chronicles": 2057,
    "diffic": 2058,
    "heavy": 2059,
    "experi": 2060,
    "evidence": 2061,
    "respons": 2062,
    "arri": 2063,
    "avail": 2064,
    "suffer": 2065,
    "tens": 2066,
    "pread": 2067,
    "hest": 2068,
    "ges": 2069,
    "concl": 2070,
    "tech": 2071,
    "columbus": 2072,
    "weeks": 2073,
    "metres": 2074,
    "primary": 2075,
    "gree": 2076,
    "asing": 2077,
    "image": 2078,
    "wrapped": 2079,
    "hurrican": 2080,
    "coldrum": 2081,
    "archaeologist": 2082,
    "spect": 2083,
    "certain": 2084,
    "staff": 2085,
    "interview": 2086,
    "designed": 2087,
    "prec": 2088,
    "500": 2089,
    "summer": 2090,
    "announ": 2091,
    "istic": 2092,
    "ature": 2093,
    "prob": 2094,
    "miles": 2095,
    "rail": 2096,
    "paren": 2097,
    "marked": 2098,
    "taking": 2099,
    "sea": 2100,
    "find": 2101,
    "champ": 2102,
    "hab": 2103,
    "tern": 2104,
    "thre": 2105,
    "lic": 2106,
    "draft": 2107,
    "stre": 2108,
    "utes": 2109,
    "minute": 2110,
    "ference": 2111,
    "vat": 2112,
    "cred": 2113,
    "langu": 2114,
    "bridge": 2115,
    "current": 2116,
    "street": 2117,
    "atl": 2118,
    "frag": 2119,
    "lad": 2120,
    "arian": 2121,
    "cert": 2122,
    "ensive": 2123,
    "cells": 2124,
    "loose": 2125,
    "era": 2126,
    "iding": 2127,
    "reaction": 2128,
    "hurricane": 2129,
    "hygro": 2130,
    "tained": 2131,
    "features": 2132,
    "miss": 2133,
    "approach": 2134,
    "aled": 2135,
    "meth": 2136,
    "names": 2137,
    "upper": 2138,
    "involved": 2139,
    "listed": 2140,
    "yed": 2141,
    "qual": 2142,
    "acy": 2143,
    "tic": 2144,
    "bes": 2145,
    "term": 2146,
    "forced": 2147,
    "nearly": 2148,
    "cing": 2149,
    "188": 2150,
    "surround": 2151,
    "ration": 2152,
    "spr": 2153,
    "fre": 2154,
    "holid": 2155,
    "holiday": 2156,
    "match": 2157,
    "ded": 2158,
    "australia": 2159,
    "rain": 2160,
    "coin": 2161,
    "fourth": 2162,
    "medi": 2163,
    "2003": 2164,
    "normal": 2165,
    "twenty": 2166,
    "aper": 2167,
    "block": 2168,
    "carol": 2169,
    "hard": 2170,
    "therap": 2171,
    "therapy": 2172,
    "introdu": 2173,
    "ara": 2174,
    "ishing": 2175,
    "mint": 2176,
    "sculpt": 2177,
    "republic": 2178,
    "mig": 2179,
    "specific": 2180,
    "ops": 2181,
    "officer": 2182,
    "territ": 2183,
    "beginning": 2184,
    "chest": 2185,
    "lower": 2186,
    "ply": 2187,
    "dire": 2188,
    "possible": 2189,
    "increased": 2190,
    "28": 2191,
    "situ": 2192,
    "sem": 2193,
    "arm": 2194,
    "observ": 2195,
    "favor": 2196,
    "books": 2197,
    "midd": 2198,
    "liter": 2199,
    "studio": 2200,
    "akes": 2201,
    "girls": 2202,
    "champion": 2203,
    "northern": 2204,
    "nu": 2205,
    "trade": 2206,
    "winning": 2207,
    "manag": 2208,
    "archite": 2209,
    "architect": 2210,
    "inch": 2211,
    "subsequently": 2212,
    "highway": 2213,
    "comment": 2214,
    "nomin": 2215,
    "sat": 2216,
    "concern": 2217,
    "og": 2218,
    "battles": 2219,
    "flight": 2220,
    "aries": 2221,
    "sky": 2222,
    "inte": 2223,
    "figure": 2224,
    "stit": 2225,
    "mexico": 2226,
    "rapping": 2227,
    "finals": 2228,
    "perform": 2229,
    "tion": 2230,
    "mission": 2231,
    "mast": 2232,
    "ained": 2233,
    "entire": 2234,
    "depend": 2235,
    "corpor": 2236,
    "27": 2237,
    "generally": 2238,
    "featured": 2239,
    "respect": 2240,
    "189": 2241,
    "tot": 2242,
    "wa": 2243,
    "hen": 2244,
    "thus": 2245,
    "campa": 2246,
    "shows": 2247,
    "larger": 2248,
    "organiz": 2249,
    "meet": 2250,
    "largely": 2251,
    "sites": 2252,
    "condu": 2253,
    "verse": 2254,
    "2005": 2255,
    "assist": 2256,
    "nature": 2257,
    "lack": 2258,
    "ni": 2259,
    "tend": 2260,
    "might": 2261,
    "winds": 2262,
    "suggested": 2263,
    "dr": 2264,
    "theast": 2265,
    "tv": 2266,
    "whom": 2267,
    "thak": 2268,
    "regard": 2269,
    "ruler": 2270,
    "2004": 2271,
    "prop": 2272,
    "185": 2273,
    "urania": 2274,
    "revolution": 2275,
    "additional": 2276,
    "numbers": 2277,
    "pose": 2278,
    "space": 2279,
    "worked": 2280,
    "appearance": 2281,
    "journal": 2282,
    "feel": 2283,
    "ising": 2284,
    "announced": 2285,
    "count": 2286,
    "thom": 2287,
    "added": 2288,
    "depict": 2289,
    "middle": 2290,
    "compet": 2291,
    "things": 2292,
    "george": 2293,
    "photo": 2294,
    "sun": 2295,
    "greater": 2296,
    "estimated": 2297,
    "study": 2298,
    "actions": 2299,
    "wis": 2300,
    "hig": 2301,
    "highest": 2302,
    "represented": 2303,
    "greate": 2304,
    "greatest": 2305,
    "program": 2306,
    "decis": 2307,
    "newsp": 2308,
    "newspaper": 2309,
    "tons": 2310,
    "redu": 2311,
    "theat": 2312,
    "offer": 2313,
    "motion": 2314,
    "secondary": 2315,
    "bodies": 2316,
    "bound": 2317,
    "past": 2318,
    "temple": 2319,
    "fruit": 2320,
    "pilot": 2321,
    "european": 2322,
    "increase": 2323,
    "nyi": 2324,
    "submar": 2325,
    "abbar": 2326,
    "media": 2327,
    "health": 2328,
    "ential": 2329,
    "achie": 2330,
    "available": 2331,
    "2001": 2332,
    "federal": 2333,
    "ney": 2334,
    "process": 2335,
    "tee": 2336,
    "dem": 2337,
    "proper": 2338,
    "chem": 2339,
    "know": 2340,
    "vic": 2341,
    "ief": 2342,
    "finally": 2343,
    "claimed": 2344,
    "ories": 2345,
    "england": 2346,
    "friend": 2347,
    "hosp": 2348,
    "social": 2349,
    "afr": 2350,
    "africa": 2351,
    "background": 2352,
    "atin": 2353,
    "william": 2354,
    "caused": 2355,
    "manager": 2356,
    "fifth": 2357,
    "ense": 2358,
    "bru": 2359,
    "arily": 2360,
    "going": 2361,
    "nes": 2362,
    "icks": 2363,
    "conference": 2364,
    "tw": 2365,
    "cath": 2366,
    "billboard": 2367,
    "scre": 2368,
    "conf": 2369,
    "erz": 2370,
    "rare": 2371,
    "groups": 2372,
    "increasing": 2373,
    "cil": 2374,
    "polic": 2375,
    "cop": 2376,
    "raaf": 2377,
    "germany": 2378,
    "pitch": 2379,
    "nation": 2380,
    "posit": 2381,
    "critics": 2382,
    "fan": 2383,
    "growth": 2384,
    "elements": 2385,
    "troops": 2386,
    "engine": 2387,
    "method": 2388,
    "dar": 2389,
    "independ": 2390,
    "proposed": 2391,
    "shortly": 2392,
    "amo": 2393,
    "pected": 2394,
    "working": 2395,
    "ibility": 2396,
    "detail": 2397,
    "lish": 2398,
    "gam": 2399,
    "stop": 2400,
    "eventually": 2401,
    "remaining": 2402,
    "specim": 2403,
    "agreed": 2404,
    "35": 2405,
    "36": 2406,
    "campaign": 2407,
    "cell": 2408,
    "chief": 2409,
    "ones": 2410,
    "lake": 2411,
    "aut": 2412,
    "tt": 2413,
    "promis": 2414,
    "students": 2415,
    "2002": 2416,
    "opport": 2417,
    "opportun": 2418,
    "individuals": 2419,
    "meas": 2420,
    "rick": 2421,
    "helped": 2422,
    "hu": 2423,
    "silver": 2424,
    "atic": 2425,
    "language": 2426,
    "catholic": 2427,
    "inches": 2428,
    "charles": 2429,
    "canadian": 2430,
    "battleship": 2431,
    "figures": 2432,
    "70": 2433,
    "pract": 2434,
    "producer": 2435,
    "radio": 2436,
    "risk": 2437,
    "reag": 2438,
    "devin": 2439,
    "synago": 2440,
    "synagogue": 2441,
    "olithic": 2442,
    "megal": 2443,
    "praised": 2444,
    "related": 2445,
    "divided": 2446,
    "tempor": 2447,
    "feature": 2448,
    "whose": 2449,
    "comes": 2450,
    "towards": 2451,
    "super": 2452,
    "wanted": 2453,
    "ify": 2454,
    "instr": 2455,
    "demo": 2456,
    "sold": 2457,
    "english": 2458,
    "magaz": 2459,
    "flower": 2460,
    "inct": 2461,
    "ze": 2462,
    "26": 2463,
    "almost": 2464,
    "adel": 2465,
    "adelph": 2466,
    "adelphia": 2467,
    "pressed": 2468,
    "trave": 2469,
    "loy": 2470,
    "graphy": 2471,
    "blackie": 2472,
    "ored": 2473,
    "services": 2474,
    "anal": 2475,
    "hung": 2476,
    "sting": 2477,
    "below": 2478,
    "sn": 2479,
    "mou": 2480,
    "size": 2481,
    "dead": 2482,
    "saves": 2483,
    "istics": 2484,
    "paul": 2485,
    "grand": 2486,
    "oting": 2487,
    "godd": 2488,
    "goddess": 2489,
    "env": 2490,
    "adop": 2491,
    "example": 2492,
    "slayer": 2493,
    "mic": 2494,
    "airport": 2495,
    "baby": 2496,
    "strapping": 2497,
    "wolf": 2498,
    "russ": 2499,
    "gabbar": 2500,
    "hygrometric": 2501,
    "hygrometricus": 2502,
    "uy": 2503,
    "uygh": 2504,
    "uyghur": 2505,
    "location": 2506,
    "selected": 2507,
    "units": 2508,
    "ributed": 2509,
    "ready": 2510,
    "armed": 2511,
    "reason": 2512,
    "overall": 2513,
    "29": 2514,
    "turned": 2515,
    "mun": 2516,
    "winter": 2517,
    "sembl": 2518,
    "secur": 2519,
    "except": 2520,
    "oil": 2521,
    "phy": 2522,
    "months": 2523,
    "dow": 2524,
    "broken": 2525,
    "focus": 2526,
    "access": 2527,
    "brown": 2528,
    "inc": 2529,
    "omy": 2530,
    "quest": 2531,
    "vice": 2532,
    "earned": 2533,
    "lu": 2534,
    "attempt": 2535,
    "controlled": 2536,
    "reviews": 2537,
    "defin": 2538,
    "supported": 2539,
    "scholar": 2540,
    "bone": 2541,
    "myth": 2542,
    "deity": 2543,
    "classic": 2544,
    "lect": 2545,
    "fox": 2546,
    "vargas": 2547,
    "llosa": 2548,
    "snl": 2549,
    "parvat": 2550,
    "parvati": 2551,
    "madison": 2552,
    "breeding": 2553,
    "scri": 2554,
    "opening": 2555,
    "types": 2556,
    "fight": 2557,
    "mostly": 2558,
    "cause": 2559,
    "scene": 2560,
    "ext": 2561,
    "31": 2562,
    "artists": 2563,
    "mp": 2564,
    "deli": 2565,
    "issued": 2566,
    "moun": 2567,
    "mach": 2568,
    "chemical": 2569,
    "establish": 2570,
    "uses": 2571,
    "visit": 2572,
    "sister": 2573,
    "teach": 2574,
    "vert": 2575,
    "here": 2576,
    "division": 2577,
    "1998": 2578,
    "teams": 2579,
    "particip": 2580,
    "acting": 2581,
    "course": 2582,
    "males": 2583,
    "usually": 2584,
    "fired": 2585,
    "minutes": 2586,
    "bruins": 2587,
    "ication": 2588,
    "stan": 2589,
    "commit": 2590,
    "source": 2591,
    "carolina": 2592,
    "egyptians": 2593,
    "frank": 2594,
    "environ": 2595,
    "abs": 2596,
    "promoted": 2597,
    "associated": 2598,
    "grass": 2599,
    "audi": 2600,
    "assass": 2601,
    "acre": 2602,
    "jim": 2603,
    "studies": 2604,
    "mye": 2605,
    "usion": 2606,
    "anded": 2607,
    "told": 2608,
    "carried": 2609,
    "leader": 2610,
    "offered": 2611,
    "anc": 2612,
    "killed": 2613,
    "separ": 2614,
    "constructed": 2615,
    "poor": 2616,
    "provided": 2617,
    "aspect": 2618,
    "magazine": 2619,
    "occas": 2620,
    "appearances": 2621,
    "governor": 2622,
    "quick": 2623,
    "iment": 2624,
    "authorities": 2625,
    "batter": 2626,
    "compan": 2627,
    "libr": 2628,
    "ler": 2629,
    "ties": 2630,
    "exhib": 2631,
    "places": 2632,
    "1994": 2633,
    "sac": 2634,
    "retired": 2635,
    "hospital": 2636,
    "attention": 2637,
    "ency": 2638,
    "memorial": 2639,
    "seasons": 2640,
    "omic": 2641,
    "tom": 2642,
    "genet": 2643,
    "promin": 2644,
    "pick": 2645,
    "agement": 2646,
    "gg": 2647,
    "conse": 2648,
    "double": 2649,
    "host": 2650,
    "jud": 2651,
    "vest": 2652,
    "circ": 2653,
    "phys": 2654,
    "mixed": 2655,
    "bra": 2656,
    "cross": 2657,
    "bol": 2658,
    "difficult": 2659,
    "eas": 2660,
    "pilots": 2661,
    "acce": 2662,
    "fict": 2663,
    "eleph": 2664,
    "fits": 2665,
    "cele": 2666,
    "ontar": 2667,
    "ontario": 2668,
    "cancer": 2669,
    "object": 2670,
    "creation": 2671,
    "environment": 2672,
    "cruiser": 2673,
    "bran": 2674,
    "dí": 2675,
    "díaz": 2676,
    "prison": 2677,
    "explain": 2678,
    "wasp": 2679,
    "propag": 2680,
    "propagand": 2681,
    "mv": 2682,
    "compounds": 2683,
    "gall": 2684,
    "mult": 2685,
    "adap": 2686,
    "higher": 2687,
    "turn": 2688,
    "kur": 2689,
    "awarded": 2690,
    "asked": 2691,
    "explo": 2692,
    "selves": 2693,
    "respon": 2694,
    "response": 2695,
    "tracks": 2696,
    "lyr": 2697,
    "web": 2698,
    "owned": 2699,
    "cited": 2700,
    "mac": 2701,
    "arkans": 2702,
    "arkansas": 2703,
    "robert": 2704,
    "previously": 2705,
    "captain": 2706,
    "alled": 2707,
    "smith": 2708,
    "necess": 2709,
    "safe": 2710,
    "probably": 2711,
    "doc": 2712,
    "pay": 2713,
    "continue": 2714,
    "famil": 2715,
    "entran": 2716,
    "ington": 2717,
    "oney": 2718,
    "preser": 2719,
    "girl": 2720,
    "oro": 2721,
    "wales": 2722,
    "imp": 2723,
    "replaced": 2724,
    "terms": 2725,
    "consecutive": 2726,
    "idents": 2727,
    "pts": 2728,
    "greg": 2729,
    "ateg": 2730,
    "ification": 2731,
    "daily": 2732,
    "bow": 2733,
    "aked": 2734,
    "reli": 2735,
    "antic": 2736,
    "aring": 2737,
    "baseball": 2738,
    "twins": 2739,
    "temples": 2740,
    "council": 2741,
    "1939": 2742,
    "areas": 2743,
    "fung": 2744,
    "dominican": 2745,
    "germans": 2746,
    "workers": 2747,
    "wander": 2748,
    "thai": 2749,
    "theme": 2750,
    "themselves": 2751,
    "sey": 2752,
    "rather": 2753,
    "actor": 2754,
    "mode": 2755,
    "guit": 2756,
    "piece": 2757,
    "dut": 2758,
    "entertain": 2759,
    "bir": 2760,
    "arms": 2761,
    "respond": 2762,
    "ultim": 2763,
    "labor": 2764,
    "tured": 2765,
    "smaller": 2766,
    "money": 2767,
    "acts": 2768,
    "finan": 2769,
    "christian": 2770,
    "artist": 2771,
    "entered": 2772,
    "1920": 2773,
    "victor": 2774,
    "plant": 2775,
    "angel": 2776,
    "lou": 2777,
    "49": 2778,
    "laun": 2779,
    "gul": 2780,
    "reports": 2781,
    "variety": 2782,
    "compared": 2783,
    "los": 2784,
    "philadelphia": 2785,
    "ore": 2786,
    "sha": 2787,
    "average": 2788,
    "invest": 2789,
    "committee": 2790,
    "annual": 2791,
    "atlanta": 2792,
    "brother": 2793,
    "vir": 2794,
    "ush": 2795,
    "penn": 2796,
    "actress": 2797,
    "franc": 2798,
    "francis": 2799,
    "acted": 2800,
    "flood": 2801,
    "cerem": 2802,
    "diag": 2803,
    "diagno": 2804,
    "saying": 2805,
    "bomb": 2806,
    "worship": 2807,
    "religion": 2808,
    "ants": 2809,
    "fit": 2810,
    "dream": 2811,
    "information": 2812,
    "heaven": 2813,
    "survey": 2814,
    "carbon": 2815,
    "dollars": 2816,
    "sulf": 2817,
    "adam": 2818,
    "zagre": 2819,
    "zagreb": 2820,
    "naz": 2821,
    "neolithic": 2822,
    "stans": 2823,
    "stansfield": 2824,
    "wanderers": 2825,
    "peters": 2826,
    "acute": 2827,
    "hi": 2828,
    "always": 2829,
    "acqu": 2830,
    "ancient": 2831,
    "alleg": 2832,
    "true": 2833,
    "plans": 2834,
    "moral": 2835,
    "highly": 2836,
    "planned": 2837,
    "title": 2838,
    "hous": 2839,
    "fut": 2840,
    "emer": 2841,
    "prevent": 2842,
    "subject": 2843,
    "allowed": 2844,
    "agree": 2845,
    "hands": 2846,
    "stay": 2847,
    "fell": 2848,
    "consisted": 2849,
    "leon": 2850,
    "thomas": 2851,
    "collection": 2852,
    "mur": 2853,
    "bul": 2854,
    "naval": 2855,
    "advan": 2856,
    "arts": 2857,
    "collabor": 2858,
    "bio": 2859,
    "conducted": 2860,
    "planning": 2861,
    "capt": 2862,
    "influence": 2863,
    "1988": 2864,
    "treas": 2865,
    "makes": 2866,
    "chall": 2867,
    "hours": 2868,
    "habit": 2869,
    "genus": 2870,
    "via": 2871,
    "sexual": 2872,
    "resulted": 2873,
    "discus": 2874,
    "owner": 2875,
    "sam": 2876,
    "ceed": 2877,
    "ille": 2878,
    "caa": 2879,
    "italian": 2880,
    "jul": 2881,
    "decision": 2882,
    "vocals": 2883,
    "cting": 2884,
    "torped": 2885,
    "torpedo": 2886,
    "admir": 2887,
    "tig": 2888,
    "party": 2889,
    "1991": 2890,
    "1995": 2891,
    "introduced": 2892,
    "1999": 2893,
    "sisters": 2894,
    "uded": 2895,
    "grew": 2896,
    "living": 2897,
    "vessel": 2898,
    "compl": 2899,
    "cially": 2900,
    "micro": 2901,
    "fields": 2902,
    "tree": 2903,
    "square": 2904,
    "storyline": 2905,
    "mc": 2906,
    "excavations": 2907,
    "propaganda": 2908,
    "marily": 2909,
    "exit": 2910,
    "veer": 2911,
    "veeru": 2912,
    "unit": 2913,
    "soldi": 2914,
    "sw": 2915,
    "imin": 2916,
    "destroyed": 2917,
    "maxim": 2918,
    "required": 2919,
    "themes": 2920,
    "lyrics": 2921,
    "revealed": 2922,
    "watch": 2923,
    "kes": 2924,
    "purch": 2925,
    "insp": 2926,
    "purpose": 2927,
    "request": 2928,
    "newly": 2929,
    "transferred": 2930,
    "mitted": 2931,
    "leav": 2932,
    "repair": 2933,
    "confeder": 2934,
    "smo": 2935,
    "attempted": 2936,
    "lie": 2937,
    "chap": 2938,
    "mary": 2939,
    "bri": 2940,
    "entrance": 2941,
    "wash": 2942,
    "surrounding": 2943,
    "suffered": 2944,
    "spring": 2945,
    "gest": 2946,
    "rey": 2947,
    "competition": 2948,
    "sevent": 2949,
    "sus": 2950,
    "1943": 2951,
    "initial": 2952,
    "rights": 2953,
    "active": 2954,
    "industri": 2955,
    "becoming": 2956,
    "relative": 2957,
    "allowing": 2958,
    "boston": 2959,
    "bell": 2960,
    "76": 2961,
    "refle": 2962,
    "rac": 2963,
    "bob": 2964,
    "1986": 2965,
    "secretary": 2966,
    "sail": 2967,
    "dram": 2968,
    "magic": 2969,
    "bing": 2970,
    "worth": 2971,
    "1996": 2972,
    "itself": 2973,
    "ament": 2974,
    "argu": 2975,
    "texts": 2976,
    "frequ": 2977,
    "shrine": 2978,
    "factory": 2979,
    "typically": 2980,
    "treaty": 2981,
    "ax": 2982,
    "cab": 2983,
    "coup": 2984,
    "document": 2985,
    "istan": 2986,
    "mvp": 2987,
    "marilyn": 2988,
    "jap": 2989,
    "japan": 2990,
    "takes": 2991,
    "writers": 2992,
    "positive": 2993,
    "assigned": 2994,
    "dict": 2995,
    "officially": 2996,
    "seem": 2997,
    "removed": 2998,
    "proble": 2999,
    "synthe": 3000,
    "serious": 3001,
    "repe": 3002,
    "inspired": 3003,
    "1997": 3004,
    "perman": 3005,
    "consider": 3006,
    "termin": 3007,
    "mble": 3008,
    "situation": 3009,
    "yet": 3010,
    "stant": 3011,
    "cali": 3012,
    "jack": 3013,
    "paper": 3014,
    "hop": 3015,
    "indic": 3016,
    "invited": 3017,
    "honor": 3018,
    "fairies": 3019,
    "window": 3020,
    "ously": 3021,
    "1918": 3022,
    "give": 3023,
    "influenced": 3024,
    "1950": 3025,
    "drew": 3026,
    "regional": 3027,
    "tries": 3028,
    "village": 3029,
    "continent": 3030,
    "rays": 3031,
    "latin": 3032,
    "analys": 3033,
    "likely": 3034,
    "mouth": 3035,
    "gulf": 3036,
    "shore": 3037,
    "1990": 3038,
    "missed": 3039,
    "playoffs": 3040,
    "kings": 3041,
    "ioned": 3042,
    "tied": 3043,
    "slow": 3044,
    "onto": 3045,
    "notes": 3046,
    "dance": 3047,
    "identified": 3048,
    "speed": 3049,
    "demonstr": 3050,
    "defend": 3051,
    "gradu": 3052,
    "thr": 3053,
    "screen": 3054,
    "stic": 3055,
    "celebr": 3056,
    "master": 3057,
    "future": 3058,
    "austro": 3059,
    "hungarian": 3060,
    "element": 3061,
    "symb": 3062,
    "depicts": 3063,
    "rup": 3064,
    "wides": 3065,
    "reign": 3066,
    "espe": 3067,
    "especially": 3068,
    "festival": 3069,
    "strict": 3070,
    "aerodrom": 3071,
    "aerodromes": 3072,
    "ulated": 3073,
    "dri": 3074,
    "zr": 3075,
    "zrí": 3076,
    "zrínyi": 3077,
    "iants": 3078,
    "academic": 3079,
    "intell": 3080,
    "intellig": 3081,
    "aging": 3082,
    "job": 3083,
    "95": 3084,
    "carved": 3085,
    "copies": 3086,
    "beach": 3087,
    "archaeologists": 3088,
    "medway": 3089,
    "andy": 3090,
    "birds": 3091,
    "myelo": 3092,
    "referred": 3093,
    "soldiers": 3094,
    "capital": 3095,
    "approxim": 3096,
    "approximately": 3097,
    "structure": 3098,
    "expected": 3099,
    "test": 3100,
    "aspects": 3101,
    "pra": 3102,
    "distinct": 3103,
    "birth": 3104,
    "thick": 3105,
    "elect": 3106,
    "already": 3107,
    "span": 3108,
    "security": 3109,
    "conver": 3110,
    "sip": 3111,
    "green": 3112,
    "omin": 3113,
    "married": 3114,
    "families": 3115,
    "door": 3116,
    "andon": 3117,
    "disco": 3118,
    "hood": 3119,
    "1985": 3120,
    "hired": 3121,
    "friends": 3122,
    "andre": 3123,
    "1940": 3124,
    "enough": 3125,
    "photograph": 3126,
    "1930": 3127,
    "championship": 3128,
    "mainly": 3129,
    "economic": 3130,
    "ribution": 3131,
    "threaten": 3132,
    "occurred": 3133,
    "deep": 3134,
    "hun": 3135,
    "rate": 3136,
    "forward": 3137,
    "management": 3138,
    "failed": 3139,
    "erous": 3140,
    "calling": 3141,
    "replace": 3142,
    "cts": 3143,
    "historical": 3144,
    "camer": 3145,
    "says": 3146,
    "vocal": 3147,
    "mph": 3148,
    "180": 3149,
    "bad": 3150,
    "accepted": 3151,
    "kar": 3152,
    "1984": 3153,
    "din": 3154,
    "croat": 3155,
    "belief": 3156,
    "ingu": 3157,
    "whole": 3158,
    "includes": 3159,
    "traditional": 3160,
    "performances": 3161,
    "selling": 3162,
    "prog": 3163,
    "opin": 3164,
    "hus": 3165,
    "husband": 3166,
    "fungus": 3167,
    "lewis": 3168,
    "china": 3169,
    "discovered": 3170,
    "zap": 3171,
    "minister": 3172,
    "loan": 3173,
    "pak": 3174,
    "pakistan": 3175,
    "aot": 3176,
    "holoc": 3177,
    "holocaust": 3178,
    "jai": 3179,
    "franch": 3180,
    "text": 3181,
    "individual": 3182,
    "stom": 3183,
    "alongside": 3184,
    "directly": 3185,
    "tered": 3186,
    "temporary": 3187,
    "plot": 3188,
    "woman": 3189,
    "chance": 3190,
    "peace": 3191,
    "idea": 3192,
    "faced": 3193,
    "guitar": 3194,
    "singles": 3195,
    "latter": 3196,
    "scenes": 3197,
    "issues": 3198,
    "leng": 3199,
    "directed": 3200,
    "extens": 3201,
    "buildings": 3202,
    "bud": 3203,
    "ordered": 3204,
    "news": 3205,
    "quickly": 3206,
    "giving": 3207,
    "cit": 3208,
    "inside": 3209,
    "rapid": 3210,
    "library": 3211,
    "rend": 3212,
    "today": 3213,
    "occupied": 3214,
    "attended": 3215,
    "longer": 3216,
    "administ": 3217,
    "regist": 3218,
    "commissioned": 3219,
    "discovery": 3220,
    "struction": 3221,
    "daugh": 3222,
    "sevente": 3223,
    "seventeen": 3224,
    "aught": 3225,
    "kin": 3226,
    "literature": 3227,
    "respectively": 3228,
    "cher": 3229,
    "presents": 3230,
    "african": 3231,
    "analysis": 3232,
    "complex": 3233,
    "prominent": 3234,
    "assistant": 3235,
    "streak": 3236,
    "stating": 3237,
    "johnson": 3238,
    "immedi": 3239,
    "exper": 3240,
    "ological": 3241,
    "300": 3242,
    "stars": 3243,
    "fix": 3244,
    "carey": 3245,
    "write": 3246,
    "section": 3247,
    "bank": 3248,
    "settle": 3249,
    "passed": 3250,
    "admiral": 3251,
    "syl": 3252,
    "mut": 3253,
    "chemo": 3254,
    "chemotherapy": 3255,
    "1914": 3256,
    "cruisers": 3257,
    "600": 3258,
    "battleships": 3259,
    "distingu": 3260,
    "independent": 3261,
    "behav": 3262,
    "fully": 3263,
    "widespread": 3264,
    "dy": 3265,
    "emphas": 3266,
    "older": 3267,
    "extre": 3268,
    "opportunities": 3269,
    "think": 3270,
    "engaged": 3271,
    "airports": 3272,
    "rome": 3273,
    "categ": 3274,
    "severe": 3275,
    "longacre": 3276,
    "nick": 3277,
    "nearby": 3278,
    "narr": 3279,
    "fictional": 3280,
    "solo": 3281,
    "portu": 3282,
    "sources": 3283,
    "iths": 3284,
    "exeter": 3285,
    "palest": 3286,
    "ilis": 3287,
    "iple": 3288,
    "franchise": 3289,
    "panel": 3290,
    "fellow": 3291,
    "concept": 3292,
    "territory": 3293,
    "keep": 3294,
    "defeat": 3295,
    "want": 3296,
    "err": 3297,
    "majority": 3298,
    "sense": 3299,
    "color": 3300,
    "gs": 3301,
    "featuring": 3302,
    "excl": 3303,
    "starting": 3304,
    "morning": 3305,
    "must": 3306,
    "equip": 3307,
    "sole": 3308,
    "vation": 3309,
    "floor": 3310,
    "pression": 3311,
    "spent": 3312,
    "provide": 3313,
    "cost": 3314,
    "attend": 3315,
    "visited": 3316,
    "shire": 3317,
    "trees": 3318,
    "1944": 3319,
    "words": 3320,
    "ranked": 3321,
    "mask": 3322,
    "altern": 3323,
    "changes": 3324,
    "changed": 3325,
    "38": 3326,
    "percent": 3327,
    "better": 3328,
    "missing": 3329,
    "stage": 3330,
    "contra": 3331,
    "88": 3332,
    "farm": 3333,
    "captured": 3334,
    "push": 3335,
    "pennsyl": 3336,
    "pennsylvan": 3337,
    "parent": 3338,
    "cape": 3339,
    "roles": 3340,
    "lywood": 3341,
    "cine": 3342,
    "tray": 3343,
    "responsible": 3344,
    "dating": 3345,
    "treatment": 3346,
    "seventh": 3347,
    "1992": 3348,
    "1993": 3349,
    "erzher": 3350,
    "erzherz": 3351,
    "erzherzog": 3352,
    "42": 3353,
    "amun": 3354,
    "creator": 3355,
    "slight": 3356,
    "2000": 3357,
    "france": 3358,
    "medical": 3359,
    "concent": 3360,
    "hot": 3361,
    "sain": 3362,
    "refused": 3363,
    "ane": 3364,
    "aria": 3365,
    "flow": 3366,
    "premi": 3367,
    "reagents": 3368,
    "goat": 3369,
    "generation": 3370,
    "agu": 3371,
    "nant": 3372,
    "nbc": 3373,
    "pregn": 3374,
    "houston": 3375,
    "megaliths": 3376,
    "ogu": 3377,
    "maya": 3378,
    "timbal": 3379,
    "timbaland": 3380,
    "fragilis": 3381,
    "serving": 3382,
    "standard": 3383,
    "cked": 3384,
    "ulty": 3385,
    "victory": 3386,
    "fal": 3387,
    "combined": 3388,
    "losses": 3389,
    "icle": 3390,
    "pped": 3391,
    "tation": 3392,
    "illu": 3393,
    "illustr": 3394,
    "arth": 3395,
    "museums": 3396,
    "headquar": 3397,
    "permanent": 3398,
    "isl": 3399,
    "rison": 3400,
    "interpre": 3401,
    "forts": 3402,
    "note": 3403,
    "ases": 3404,
    "itable": 3405,
    "activity": 3406,
    "guard": 3407,
    "sixth": 3408,
    "ale": 3409,
    "amed": 3410,
    "poses": 3411,
    "big": 3412,
    "shell": 3413,
    "depicting": 3414,
    "influences": 3415,
    "andrew": 3416,
    "kee": 3417,
    "logy": 3418,
    "eye": 3419,
    "seas": 3420,
    "tale": 3421,
    "1941": 3422,
    "matches": 3423,
    "launched": 3424,
    "dedicated": 3425,
    "value": 3426,
    "scient": 3427,
    "39": 3428,
    "ology": 3429,
    "injury": 3430,
    "numerous": 3431,
    "representative": 3432,
    "bring": 3433,
    "yl": 3434,
    "aware": 3435,
    "supporting": 3436,
    "commented": 3437,
    "fourteen": 3438,
    "khan": 3439,
    "azz": 3440,
    "singh": 3441,
    "shooting": 3442,
    "mum": 3443,
    "thakur": 3444,
    "max": 3445,
    "advanced": 3446,
    "characteristics": 3447,
    "symbol": 3448,
    "scholars": 3449,
    "regarded": 3450,
    "cities": 3451,
    "extreme": 3452,
    "ionally": 3453,
    "motional": 3454,
    "standards": 3455,
    "facilities": 3456,
    "conditions": 3457,
    "joint": 3458,
    "concluded": 3459,
    "primarily": 3460,
    "assassination": 3461,
    "branch": 3462,
    "chair": 3463,
    "surviv": 3464,
    "pet": 3465,
    "historian": 3466,
    "serves": 3467,
    "notable": 3468,
    "zapata": 3469,
    "promotion": 3470,
    "sculptures": 3471,
    "constit": 3472,
    "pg": 3473,
    "patrick": 3474,
    "kn": 3475,
    "cens": 3476,
    "nut": 3477,
    "freeway": 3478,
    "audience": 3479,
    "uyghurs": 3480,
    "carry": 3481,
    "done": 3482,
    "load": 3483,
    "gran": 3484,
    "potential": 3485,
    "unique": 3486,
    "weap": 3487,
    "adv": 3488,
    "ease": 3489,
    "kim": 3490,
    "reception": 3491,
    "length": 3492,
    "1942": 3493,
    "legisl": 3494,
    "ultimately": 3495,
    "intended": 3496,
    "umed": 3497,
    "therefore": 3498,
    "charge": 3499,
    "leaving": 3500,
    "dun": 3501,
    "lt": 3502,
    "box": 3503,
    "financial": 3504,
    "1911": 3505,
    "designated": 3506,
    "cock": 3507,
    "sci": 3508,
    "ades": 3509,
    "pit": 3510,
    "amate": 3511,
    "amateur": 3512,
    "belong": 3513,
    "publication": 3514,
    "semi": 3515,
    "parish": 3516,
    "atives": 3517,
    "doing": 3518,
    "pursu": 3519,
    "prepar": 3520,
    "wild": 3521,
    "gamb": 3522,
    "gambia": 3523,
    "countries": 3524,
    "organized": 3525,
    "patter": 3526,
    "threatened": 3527,
    "tax": 3528,
    "description": 3529,
    "scott": 3530,
    "jeff": 3531,
    "fans": 3532,
    "montre": 3533,
    "montreal": 3534,
    "iate": 3535,
    "sell": 3536,
    "cks": 3537,
    "protest": 3538,
    "investig": 3539,
    "organization": 3540,
    "immediately": 3541,
    "cure": 3542,
    "sched": 3543,
    "icted": 3544,
    "400": 3545,
    "cases": 3546,
    "accept": 3547,
    "northeast": 3548,
    "expressed": 3549,
    "economy": 3550,
    "occupation": 3551,
    "means": 3552,
    "reduced": 3553,
    "arrived": 3554,
    "ja": 3555,
    "plays": 3556,
    "projects": 3557,
    "pic": 3558,
    "sms": 3559,
    "rets": 3560,
    "eve": 3561,
    "humans": 3562,
    "posing": 3563,
    "whether": 3564,
    "counter": 3565,
    "greek": 3566,
    "marsh": 3567,
    "ah": 3568,
    "fill": 3569,
    "pun": 3570,
    "presented": 3571,
    "kind": 3572,
    "viewer": 3573,
    "heavily": 3574,
    "cool": 3575,
    "glid": 3576,
    "policy": 3577,
    "saint": 3578,
    "ange": 3579,
    "produce": 3580,
    "stin": 3581,
    "aul": 3582,
    "intelligence": 3583,
    "holds": 3584,
    "bour": 3585,
    "portugu": 3586,
    "portuguese": 3587,
    "ceremony": 3588,
    "valley": 3589,
    "19th": 3590,
    "leonard": 3591,
    "jazz": 3592,
    "tenure": 3593,
    "poles": 3594,
    "ght": 3595,
    "stable": 3596,
    "essa": 3597,
    "acid": 3598,
    "geast": 3599,
    "geastrum": 3600,
    "inich": 3601,
    "aak": 3602,
    "leukemic": 3603,
    "progno": 3604,
    "huron": 3605,
    "enem": 3606,
    "map": 3607,
    "something": 3608,
    "ift": 3609,
    "armored": 3610,
    "shared": 3611,
    "foreign": 3612,
    "effort": 3613,
    "lives": 3614,
    "entry": 3615,
    "improve": 3616,
    "sett": 3617,
    "create": 3618,
    "jected": 3619,
    "bass": 3620,
    "musical": 3621,
    "details": 3622,
    "charts": 3623,
    "quality": 3624,
    "weak": 3625,
    "pict": 3626,
    "arthur": 3627,
    "passing": 3628,
    "specimen": 3629,
    "henry": 3630,
    "spread": 3631,
    "guar": 3632,
    "necessary": 3633,
    "denied": 3634,
    "your": 3635,
    "property": 3636,
    "fles": 3637,
    "else": 3638,
    "ledge": 3639,
    "abandon": 3640,
    "voted": 3641,
    "purposes": 3642,
    "20th": 3643,
    "glass": 3644,
    "herself": 3645,
    "1954": 3646,
    "yard": 3647,
    "institut": 3648,
    "lord": 3649,
    "1926": 3650,
    "bai": 3651,
    "bot": 3652,
    "pattern": 3653,
    "conserv": 3654,
    "basis": 3655,
    "function": 3656,
    "worst": 3657,
    "defense": 3658,
    "33": 3659,
    "kit": 3660,
    "trophy": 3661,
    "ceeded": 3662,
    "wick": 3663,
    "instrument": 3664,
    "centre": 3665,
    "performing": 3666,
    "monit": 3667,
    "pressure": 3668,
    "gment": 3669,
    "apparent": 3670,
    "drama": 3671,
    "murder": 3672,
    "eth": 3673,
    "nic": 3674,
    "attr": 3675,
    "share": 3676,
    "rid": 3677,
    "irement": 3678,
    "iny": 3679,
    "rarely": 3680,
    "allied": 3681,
    "oh": 3682,
    "objects": 3683,
    "depicted": 3684,
    "animal": 3685,
    "adopted": 3686,
    "physical": 3687,
    "hair": 3688,
    "increasingly": 3689,
    "label": 3690,
    "magn": 3691,
    "recre": 3692,
    "landing": 3693,
    "airspace": 3694,
    "provid": 3695,
    "fat": 3696,
    "prohib": 3697,
    "submarine": 3698,
    "1913": 3699,
    "carbonaria": 3700,
    "spores": 3701,
    "francisco": 3702,
    "sculpture": 3703,
    "folk": 3704,
    "yli": 3705,
    "ylide": 3706,
    "dictator": 3707,
    "tennant": 3708,
    "explained": 3709,
    "fame": 3710,
    "usz": 3711,
    "warsaw": 3712,
    "kaz": 3713,
    "wight": 3714,
    "ras": 3715,
    "hay": 3716,
    "thail": 3717,
    "thailand": 3718,
    "giants": 3719,
    "lamb": 3720,
    "israeli": 3721,
    "husbandman": 3722,
    "sales": 3723,
    "progress": 3724,
    "skill": 3725,
    "experience": 3726,
    "meaning": 3727,
    "presence": 3728,
    "kept": 3729,
    "benef": 3730,
    "grade": 3731,
    "achieve": 3732,
    "incorpor": 3733,
    "singer": 3734,
    "fected": 3735,
    "improved": 3736,
    "richard": 3737,
    "extensive": 3738,
    "thir": 3739,
    "race": 3740,
    "1861": 3741,
    "widely": 3742,
    "deem": 3743,
    "assembl": 3744,
    "prom": 3745,
    "manu": 3746,
    "caliber": 3747,
    "equipment": 3748,
    "75": 3749,
    "establishment": 3750,
    "employ": 3751,
    "brief": 3752,
    "ses": 3753,
    "stained": 3754,
    "daughter": 3755,
    "keeper": 3756,
    "recomm": 3757,
    "1961": 3758,
    "favorite": 3759,
    "institutions": 3760,
    "1929": 3761,
    "treasury": 3762,
    "roll": 3763,
    "represents": 3764,
    "participated": 3765,
    "funding": 3766,
    "leave": 3767,
    "incident": 3768,
    "nuclear": 3769,
    "contains": 3770,
    "ging": 3771,
    "fare": 3772,
    "steve": 3773,
    "losing": 3774,
    "sports": 3775,
    "elimin": 3776,
    "48": 3777,
    "mates": 3778,
    "pope": 3779,
    "observatory": 3780,
    "ergy": 3781,
    "plement": 3782,
    "twice": 3783,
    "contrast": 3784,
    "mob": 3785,
    "nah": 3786,
    "attempts": 3787,
    "phen": 3788,
    "inner": 3789,
    "trials": 3790,
    "haw": 3791,
    "ization": 3792,
    "kan": 3793,
    "portray": 3794,
    "entertainment": 3795,
    "2016": 3796,
    "contemporary": 3797,
    "disease": 3798,
    "concerned": 3799,
    "marrow": 3800,
    "ferdin": 3801,
    "ferdinand": 3802,
    "turrets": 3803,
    "italy": 3804,
    "rituals": 3805,
    "gly": 3806,
    "applied": 3807,
    "ideas": 3808,
    "mentioned": 3809,
    "horus": 3810,
    "ordin": 3811,
    "priest": 3812,
    "importance": 3813,
    "mani": 3814,
    "deb": 3815,
    "usual": 3816,
    "relief": 3817,
    "residents": 3818,
    "food": 3819,
    "effects": 3820,
    "swal": 3821,
    "swallow": 3822,
    "really": 3823,
    "aerodrome": 3824,
    "environmental": 3825,
    "powered": 3826,
    "47": 3827,
    "rated": 3828,
    "southeast": 3829,
    "destruction": 3830,
    "transportation": 3831,
    "submarines": 3832,
    "strike": 3833,
    "replacement": 3834,
    "72": 3835,
    "oxide": 3836,
    "aly": 3837,
    "violence": 3838,
    "execut": 3839,
    "pon": 3840,
    "darwin": 3841,
    "chris": 3842,
    "coastal": 3843,
    "invas": 3844,
    "glo": 3845,
    "kra": 3846,
    "edge": 3847,
    "walk": 3848,
    "1900": 3849,
    "nazi": 3850,
    "flooding": 3851,
    "foundation": 3852,
    "sippy": 3853,
    "aden": 3854,
    "saurus": 3855,
    "dwight": 3856,
    "palen": 3857,
    "palenque": 3858,
    "lambton": 3859,
    "imper": 3860,
    "imperial": 3861,
    "multiple": 3862,
    "awa": 3863,
    "script": 3864,
    "edition": 3865,
    "missions": 3866,
    "custom": 3867,
    "attacks": 3868,
    "grown": 3869,
    "classes": 3870,
    "accused": 3871,
    "nd": 3872,
    "amount": 3873,
    "dark": 3874,
    "mem": 3875,
    "memory": 3876,
    "noting": 3877,
    "pac": 3878,
    "criticism": 3879,
    "citing": 3880,
    "representing": 3881,
    "cam": 3882,
    "native": 3883,
    "artill": 3884,
    "artillery": 3885,
    "permitted": 3886,
    "rein": 3887,
    "confir": 3888,
    "stores": 3889,
    "citiz": 3890,
    "manufact": 3891,
    "converted": 3892,
    "pi": 3893,
    "64": 3894,
    "jackson": 3895,
    "gather": 3896,
    "knowledge": 3897,
    "prepared": 3898,
    "brook": 3899,
    "condition": 3900,
    "paid": 3901,
    "paint": 3902,
    "erted": 3903,
    "neck": 3904,
    "chape": 3905,
    "dated": 3906,
    "1937": 3907,
    "louis": 3908,
    "challeng": 3909,
    "founded": 3910,
    "levels": 3911,
    "skin": 3912,
    "females": 3913,
    "industrial": 3914,
    "bi": 3915,
    "nash": 3916,
    "managed": 3917,
    "finish": 3918,
    "moving": 3919,
    "ski": 3920,
    "tender": 3921,
    "strugg": 3922,
    "willing": 3923,
    "unes": 3924,
    "iter": 3925,
    "involving": 3926,
    "clin": 3927,
    "mike": 3928,
    "results": 3929,
    "anton": 3930,
    "patron": 3931,
    "lights": 3932,
    "ligh": 3933,
    "dub": 3934,
    "legal": 3935,
    "brig": 3936,
    "channel": 3937,
    "800": 3938,
    "actually": 3939,
    "abled": 3940,
    "amid": 3941,
    "currently": 3942,
    "pennsylvania": 3943,
    "gros": 3944,
    "mine": 3945,
    "mumbai": 3946,
    "drawn": 3947,
    "lightning": 3948,
    "declined": 3949,
    "itation": 3950,
    "alex": 3951,
    "train": 3952,
    "retirement": 3953,
    "37": 3954,
    "millime": 3955,
    "maat": 3956,
    "relationships": 3957,
    "whereas": 3958,
    "images": 3959,
    "neigh": 3960,
    "iris": 3961,
    "ipl": 3962,
    "lear": 3963,
    "meant": 3964,
    "recognized": 3965,
    "alone": 3966,
    "examples": 3967,
    "regul": 3968,
    "practices": 3969,
    "meanwhile": 3970,
    "rub": 3971,
    "jam": 3972,
    "observed": 3973,
    "dry": 3974,
    "soundtrack": 3975,
    "bit": 3976,
    "avo": 3977,
    "safety": 3978,
    "flights": 3979,
    "noise": 3980,
    "agric": 3981,
    "recent": 3982,
    "experienced": 3983,
    "ather": 3984,
    "impact": 3985,
    "complain": 3986,
    "temper": 3987,
    "expl": 3988,
    "ald": 3989,
    "brick": 3990,
    "slightly": 3991,
    "eer": 3992,
    "congress": 3993,
    "techni": 3994,
    "cand": 3995,
    "candid": 3996,
    "publications": 3997,
    "oroz": 3998,
    "orozco": 3999,
    "resign": 4000,
    "daniel": 4001,
    "filmed": 4002,
    "jer": 4003,
    "arre": 4004,
    "immig": 4005,
    "ults": 4006,
    "elephanta": 4007,
    "herit": 4008,
    "heritage": 4009,
    "structures": 4010,
    "invasion": 4011,
    "wiz": 4012,
    "wizards": 4013,
    "defensive": 4014,
    "russian": 4015,
    "teachers": 4016,
    "ław": 4017,
    "russia": 4018,
    "tombs": 4019,
    "debuted": 4020,
    "thaksin": 4021,
    "abnormal": 4022,
    "adapted": 4023,
    "speaking": 4024,
    "movement": 4025,
    "composed": 4026,
    "theless": 4027,
    "becomes": 4028,
    "continues": 4029,
    "empire": 4030,
    "serve": 4031,
    "maintain": 4032,
    "data": 4033,
    "unlike": 4034,
    "enjo": 4035,
    "neg": 4036,
    "returning": 4037,
    "problems": 4038,
    "extended": 4039,
    "princ": 4040,
    "happen": 4041,
    "headquarters": 4042,
    "glas": 4043,
    "exped": 4044,
    "acres": 4045,
    "91": 4046,
    "convent": 4047,
    "executive": 4048,
    "perhap": 4049,
    "perhaps": 4050,
    "officials": 4051,
    "listen": 4052,
    "ordn": 4053,
    "ordnance": 4054,
    "rat": 4055,
    "efforts": 4056,
    "battery": 4057,
    "69": 4058,
    "successfully": 4059,
    "employed": 4060,
    "purchased": 4061,
    "looking": 4062,
    "boat": 4063,
    "scope": 4064,
    "pist": 4065,
    "fred": 4066,
    "jose": 4067,
    "stationed": 4068,
    "nov": 4069,
    "croy": 4070,
    "croydon": 4071,
    "ipal": 4072,
    "youn": 4073,
    "sons": 4074,
    "advert": 4075,
    "peter": 4076,
    "specimens": 4077,
    "unable": 4078,
    "funer": 4079,
    "indicated": 4080,
    "techn": 4081,
    "1915": 4082,
    "boy": 4083,
    "agency": 4084,
    "guardi": 4085,
    "46": 4086,
    "picture": 4087,
    "mount": 4088,
    "nament": 4089,
    "iations": 4090,
    "shap": 4091,
    "poly": 4092,
    "bottom": 4093,
    "victoria": 4094,
    "gins": 4095,
    "surface": 4096,
    "strate": 4097,
    "dig": 4098,
    "consists": 4099,
    "developing": 4100,
    "intens": 4101,
    "factors": 4102,
    "angeles": 4103,
    "seconds": 4104,
    "goaltender": 4105,
    "mile": 4106,
    "stanley": 4107,
    "insur": 4108,
    "toronto": 4109,
    "shop": 4110,
    "alty": 4111,
    "credited": 4112,
    "julian": 4113,
    "flan": 4114,
    "border": 4115,
    "diame": 4116,
    "diameter": 4117,
    "camera": 4118,
    "titled": 4119,
    "aska": 4120,
    "32": 4121,
    "broke": 4122,
    "spot": 4123,
    "dney": 4124,
    "advance": 4125,
    "hosted": 4126,
    "arab": 4127,
    "lands": 4128,
    "billion": 4129,
    "voice": 4130,
    "dial": 4131,
    "guest": 4132,
    "gives": 4133,
    "bond": 4134,
    "riage": 4135,
    "protection": 4136,
    "clim": 4137,
    "outstanding": 4138,
    "enn": 4139,
    "satis": 4140,
    "isis": 4141,
    "nown": 4142,
    "distinguished": 4143,
    "step": 4144,
    "knew": 4145,
    "bey": 4146,
    "trou": 4147,
    "provin": 4148,
    "buried": 4149,
    "basic": 4150,
    "laid": 4151,
    "holding": 4152,
    "encour": 4153,
    "accompl": 4154,
    "drum": 4155,
    "sector": 4156,
    "plane": 4157,
    "absence": 4158,
    "valid": 4159,
    "opinion": 4160,
    "pieces": 4161,
    "patterson": 4162,
    "chairman": 4163,
    "democr": 4164,
    "quarter": 4165,
    "anything": 4166,
    "onium": 4167,
    "dru": 4168,
    "sulfide": 4169,
    "elections": 4170,
    "rival": 4171,
    "declared": 4172,
    "feast": 4173,
    "cabral": 4174,
    "behavi": 4175,
    "arrested": 4176,
    "vessels": 4177,
    "actors": 4178,
    "covering": 4179,
    "lowe": 4180,
    "oted": 4181,
    "skull": 4182,
    "altar": 4183,
    "musicians": 4184,
    "stream": 4185,
    "ctoral": 4186,
    "lane": 4187,
    "boys": 4188,
    "achieved": 4189,
    "orland": 4190,
    "orlando": 4191,
    "salary": 4192,
    "pig": 4193,
    "politics": 4194,
    "adults": 4195,
    "rho": 4196,
    "rhode": 4197,
    "kurstin": 4198,
    "corporation": 4199,
    "tessa": 4200,
    "astra": 4201,
    "astrae": 4202,
    "astraeus": 4203,
    "moody": 4204,
    "chicks": 4205,
    "cyto": 4206,
    "cytogenet": 4207,
    "content": 4208,
    "expanded": 4209,
    "select": 4210,
    "getting": 4211,
    "wise": 4212,
    "grant": 4213,
    "table": 4214,
    "chel": 4215,
    "separate": 4216,
    "mechan": 4217,
    "instruments": 4218,
    "website": 4219,
    "article": 4220,
    "network": 4221,
    "tan": 4222,
    "thirty": 4223,
    "proved": 4224,
    "budget": 4225,
    "mason": 4226,
    "authority": 4227,
    "recently": 4228,
    "deemed": 4229,
    "confl": 4230,
    "placing": 4231,
    "cussion": 4232,
    "oth": 4233,
    "7th": 4234,
    "rd": 4235,
    "compr": 4236,
    "rev": 4237,
    "sort": 4238,
    "confederate": 4239,
    "scale": 4240,
    "rear": 4241,
    "washington": 4242,
    "traded": 4243,
    "organizations": 4244,
    "nie": 4245,
    "market": 4246,
    "parents": 4247,
    "sir": 4248,
    "australian": 4249,
    "1920s": 4250,
    "gard": 4251,
    "homes": 4252,
    "tried": 4253,
    "guardian": 4254,
    "thous": 4255,
    "thousand": 4256,
    "chapel": 4257,
    "ont": 4258,
    "sport": 4259,
    "delay": 4260,
    "beat": 4261,
    "tun": 4262,
    "maskray": 4263,
    "shaped": 4264,
    "distribution": 4265,
    "taxon": 4266,
    "mit": 4267,
    "suggesting": 4268,
    "shape": 4269,
    "relatively": 4270,
    "straight": 4271,
    "clock": 4272,
    "eigh": 4273,
    "injured": 4274,
    "happy": 4275,
    "phoen": 4276,
    "phoenix": 4277,
    "otes": 4278,
    "appoint": 4279,
    "iring": 4280,
    "inth": 4281,
    "sund": 4282,
    "ications": 4283,
    "famous": 4284,
    "decor": 4285,
    "inspir": 4286,
    "maria": 4287,
    "existence": 4288,
    "steam": 4289,
    "austri": 4290,
    "embar": 4291,
    "coal": 4292,
    "sides": 4293,
    "orient": 4294,
    "significantly": 4295,
    "aggress": 4296,
    "wound": 4297,
    "150": 4298,
    "sri": 4299,
    "bah": 4300,
    "spanish": 4301,
    "crown": 4302,
    "ding": 4303,
    "fear": 4304,
    "asian": 4305,
    "sought": 4306,
    "athlet": 4307,
    "79": 4308,
    "fighting": 4309,
    "croatia": 4310,
    "bombard": 4311,
    "tran": 4312,
    "tonnes": 4313,
    "twin": 4314,
    "raid": 4315,
    "signs": 4316,
    "maintained": 4317,
    "evol": 4318,
    "rule": 4319,
    "gain": 4320,
    "rise": 4321,
    "asc": 4322,
    "everything": 4323,
    "existing": 4324,
    "bones": 4325,
    "similarly": 4326,
    "adult": 4327,
    "question": 4328,
    "peaked": 4329,
    "didn": 4330,
    "accoun": 4331,
    "restrict": 4332,
    "airfields": 4333,
    "1970s": 4334,
    "touring": 4335,
    "decline": 4336,
    "jar": 4337,
    "iar": 4338,
    "opposed": 4339,
    "von": 4340,
    "spore": 4341,
    "1849": 4342,
    "circul": 4343,
    "circle": 4344,
    "amoun": 4345,
    "facing": 4346,
    "charlot": 4347,
    "charlotte": 4348,
    "survived": 4349,
    "meeting": 4350,
    "synthesis": 4351,
    "substit": 4352,
    "golden": 4353,
    "energy": 4354,
    "narrative": 4355,
    "anger": 4356,
    "marriage": 4357,
    "behaviour": 4358,
    "lets": 4359,
    "expo": 4360,
    "cole": 4361,
    "broadway": 4362,
    "grammy": 4363,
    "ongest": 4364,
    "ancy": 4365,
    "mart": 4366,
    "gi": 4367,
    "theater": 4368,
    "metall": 4369,
    "uri": 4370,
    "hindu": 4371,
    "settlement": 4372,
    "portico": 4373,
    "tall": 4374,
    "ya": 4375,
    "grey": 4376,
    "lasted": 4377,
    "containing": 4378,
    "seventeenth": 4379,
    "amend": 4380,
    "ppg": 4381,
    "rating": 4382,
    "1975": 4383,
    "tade": 4384,
    "tadeusz": 4385,
    "antiquar": 4386,
    "flet": 4387,
    "underne": 4388,
    "underneath": 4389,
    "magnol": 4390,
    "magnolia": 4391,
    "eless": 4392,
    "carrying": 4393,
    "portion": 4394,
    "episod": 4395,
    "turns": 4396,
    "distance": 4397,
    "greatly": 4398,
    "nevertheless": 4399,
    "false": 4400,
    "reven": 4401,
    "lived": 4402,
    "creating": 4403,
    "rejected": 4404,
    "journalists": 4405,
    "visual": 4406,
    "thetic": 4407,
    "vised": 4408,
    "walls": 4409,
    "ession": 4410,
    "item": 4411,
    "simply": 4412,
    "conflict": 4413,
    "assumed": 4414,
    "direction": 4415,
    "fab": 4416,
    "flint": 4417,
    "companies": 4418,
    "supply": 4419,
    "1862": 4420,
    "account": 4421,
    "operated": 4422,
    "ficient": 4423,
    "rapidly": 4424,
    "remainder": 4425,
    "obtained": 4426,
    "columb": 4427,
    "gone": 4428,
    "fine": 4429,
    "register": 4430,
    "thro": 4431,
    "visitors": 4432,
    "thy": 4433,
    "queen": 4434,
    "1919": 4435,
    "remarked": 4436,
    "freed": 4437,
    "poe": 4438,
    "1925": 4439,
    "rose": 4440,
    "pengu": 4441,
    "acquired": 4442,
    "print": 4443,
    "matter": 4444,
    "rhy": 4445,
    "suggests": 4446,
    "sand": 4447,
    "targe": 4448,
    "1952": 4449,
    "conservation": 4450,
    "1987": 4451,
    "tery": 4452,
    "personnel": 4453,
    "51": 4454,
    "winner": 4455,
    "additionally": 4456,
    "assists": 4457,
    "warm": 4458,
    "attributed": 4459,
    "ota": 4460,
    "uel": 4461,
    "shu": 4462,
    "posted": 4463,
    "defe": 4464,
    "joining": 4465,
    "ninth": 4466,
    "observations": 4467,
    "auto": 4468,
    "matic": 4469,
    "56": 4470,
    "urban": 4471,
    "fixed": 4472,
    "stren": 4473,
    "streng": 4474,
    "wind": 4475,
    "appears": 4476,
    "joe": 4477,
    "differences": 4478,
    "hang": 4479,
    "steps": 4480,
    "chor": 4481,
    "nebr": 4482,
    "nebraska": 4483,
    "71": 4484,
    "toward": 4485,
    "traf": 4486,
    "traffic": 4487,
    "86": 4488,
    "georg": 4489,
    "deliver": 4490,
    "suppl": 4491,
    "cargo": 4492,
    "shells": 4493,
    "ivalent": 4494,
    "connected": 4495,
    "conce": 4496,
    "positions": 4497,
    "musician": 4498,
    "princess": 4499,
    "anup": 4500,
    "emerged": 4501,
    "seeing": 4502,
    "bach": 4503,
    "attracted": 4504,
    "elephant": 4505,
    "fast": 4506,
    "victim": 4507,
    "concert": 4508,
    "fresh": 4509,
    "89": 4510,
    "appearing": 4511,
    "94": 4512,
    "symp": 4513,
    "diagnosis": 4514,
    "dread": 4515,
    "dreadn": 4516,
    "ti": 4517,
    "boats": 4518,
    "1910": 4519,
    "batteries": 4520,
    "argued": 4521,
    "reasons": 4522,
    "suggest": 4523,
    "demons": 4524,
    "instance": 4525,
    "popul": 4526,
    "beyond": 4527,
    "isc": 4528,
    "corps": 4529,
    "powerful": 4530,
    "lying": 4531,
    "phic": 4532,
    "styles": 4533,
    "yel": 4534,
    "yellow": 4535,
    "isol": 4536,
    "occasionally": 4537,
    "hund": 4538,
    "hundred": 4539,
    "mand": 4540,
    "describing": 4541,
    "aya": 4542,
    "certified": 4543,
    "licence": 4544,
    "easa": 4545,
    "gliding": 4546,
    "schedul": 4547,
    "ministry": 4548,
    "1950s": 4549,
    "resulting": 4550,
    "norm": 4551,
    "ireland": 4552,
    "ires": 4553,
    "discipl": 4554,
    "scar": 4555,
    "criticised": 4556,
    "drop": 4557,
    "alleged": 4558,
    "cruise": 4559,
    "houses": 4560,
    "apsed": 4561,
    "scopic": 4562,
    "burn": 4563,
    "denomin": 4564,
    "liber": 4565,
    "eag": 4566,
    "tell": 4567,
    "claims": 4568,
    "resembl": 4569,
    "oppon": 4570,
    "atro": 4571,
    "documentary": 4572,
    "tou": 4573,
    "leads": 4574,
    "mir": 4575,
    "dutch": 4576,
    "exposure": 4577,
    "defence": 4578,
    "oce": 4579,
    "ocean": 4580,
    "palin": 4581,
    "emmy": 4582,
    "nominated": 4583,
    "prime": 4584,
    "nominations": 4585,
    "broadcast": 4586,
    "dete": 4587,
    "km2": 4588,
    "chambers": 4589,
    "ises": 4590,
    "path": 4591,
    "compar": 4592,
    "metro": 4593,
    "statute": 4594,
    "ari": 4595,
    "induction": 4596,
    "ür": 4597,
    "ów": 4598,
    "jerz": 4599,
    "jerzy": 4600,
    "piggot": 4601,
    "piggott": 4602,
    "kras": 4603,
    "aa": 4604,
    "oba": 4605,
    "cinema": 4606,
    "rangers": 4607,
    "offs": 4608,
    "videos": 4609,
    "myso": 4610,
    "mysore": 4611,
    "fletcher": 4612,
    "wel": 4613,
    "mortim": 4614,
    "mortimer": 4615,
    "lab": 4616,
    "earthstar": 4617,
    "nest": 4618,
    "myeloid": 4619,
    "remission": 4620,
    "shaogu": 4621,
    "shaoguan": 4622,
    "prede": 4623,
    "predecess": 4624,
    "runs": 4625,
    "nameless": 4626,
    "ask": 4627,
    "consisting": 4628,
    "ached": 4629,
    "allies": 4630,
    "commanding": 4631,
    "partly": 4632,
    "adow": 4633,
    "nations": 4634,
    "wrec": 4635,
    "appeal": 4636,
    "chestra": 4637,
    "reveal": 4638,
    "extra": 4639,
    "versions": 4640,
    "exclus": 4641,
    "negative": 4642,
    "affected": 4643,
    "zone": 4644,
    "page": 4645,
    "serial": 4646,
    "fate": 4647,
    "pacific": 4648,
    "store": 4649,
    "spl": 4650,
    "reinforce": 4651,
    "recalled": 4652,
    "semble": 4653,
    "citizens": 4654,
    "demand": 4655,
    "render": 4656,
    "lock": 4657,
    "54": 4658,
    "8th": 4659,
    "dor": 4660,
    "1st": 4661,
    "aid": 4662,
    "valu": 4663,
    "lieut": 4664,
    "lieuten": 4665,
    "ironcl": 4666,
    "ironclad": 4667,
    "colon": 4668,
    "freder": 4669,
    "frederick": 4670,
    "joseph": 4671,
    "abandoned": 4672,
    "demol": 4673,
    "cards": 4674,
    "1923": 4675,
    "decades": 4676,
    "themed": 4677,
    "mund": 4678,
    "biography": 4679,
    "moder": 4680,
    "elected": 4681,
    "taught": 4682,
    "releases": 4683,
    "ida": 4684,
    "publish": 4685,
    "cular": 4686,
    "cornwall": 4687,
    "heart": 4688,
    "thed": 4689,
    "stal": 4690,
    "technical": 4691,
    "enge": 4692,
    "astic": 4693,
    "reaching": 4694,
    "fold": 4695,
    "producing": 4696,
    "organis": 4697,
    "continental": 4698,
    "maximum": 4699,
    "capture": 4700,
    "operates": 4701,
    "carter": 4702,
    "sta": 4703,
    "score": 4704,
    "agent": 4705,
    "entering": 4706,
    "detro": 4707,
    "detroit": 4708,
    "penguins": 4709,
    "starts": 4710,
    "senior": 4711,
    "regulation": 4712,
    "defeated": 4713,
    "earn": 4714,
    "palace": 4715,
    "uries": 4716,
    "apart": 4717,
    "forming": 4718,
    "preserved": 4719,
    "subsequent": 4720,
    "seat": 4721,
    "height": 4722,
    "jon": 4723,
    "engineer": 4724,
    "ensemble": 4725,
    "remix": 4726,
    "melo": 4727,
    "52": 4728,
    "fing": 4729,
    "savan": 4730,
    "savannah": 4731,
    "reser": 4732,
    "57": 4733,
    "knots": 4734,
    "owners": 4735,
    "affair": 4736,
    "oak": 4737,
    "protected": 4738,
    "equivalent": 4739,
    "flag": 4740,
    "rising": 4741,
    "prince": 4742,
    "universe": 4743,
    "degree": 4744,
    "kick": 4745,
    "bollywood": 4746,
    "ethnic": 4747,
    "movie": 4748,
    "duo": 4749,
    "theatre": 4750,
    "starred": 4751,
    "student": 4752,
    "aker": 4753,
    "convin": 4754,
    "figh": 4755,
    "bachchan": 4756,
    "politan": 4757,
    "scholarship": 4758,
    "satisf": 4759,
    "tests": 4760,
    "oly": 4761,
    "karl": 4762,
    "aft": 4763,
    "ault": 4764,
    "surpr": 4765,
    "bs": 4766,
    "goddesses": 4767,
    "capable": 4768,
    "shrines": 4769,
    "labe": 4770,
    "unknown": 4771,
    "remin": 4772,
    "communities": 4773,
    "powers": 4774,
    "osiris": 4775,
    "setting": 4776,
    "treated": 4777,
    "frequently": 4778,
    "udes": 4779,
    "debate": 4780,
    "views": 4781,
    "believe": 4782,
    "soil": 4783,
    "heads": 4784,
    "mediate": 4785,
    "unusual": 4786,
    "rules": 4787,
    "harm": 4788,
    "wr": 4789,
    "benefit": 4790,
    "oked": 4791,
    "involve": 4792,
    "architecture": 4793,
    "distur": 4794,
    "sacri": 4795,
    "bute": 4796,
    "collected": 4797,
    "crash": 4798,
    "wants": 4799,
    "aerial": 4800,
    "scheduled": 4801,
    "recreational": 4802,
    "rob": 4803,
    "normally": 4804,
    "opy": 4805,
    "charges": 4806,
    "aside": 4807,
    "fruitbodies": 4808,
    "approved": 4809,
    "miner": 4810,
    "agues": 4811,
    "successor": 4812,
    "repeated": 4813,
    "display": 4814,
    "dates": 4815,
    "corey": 4816,
    "chay": 4817,
    "chayko": 4818,
    "chaykov": 4819,
    "chaykovsky": 4820,
    "suppor": 4821,
    "hua": 4822,
    "executed": 4823,
    "hero": 4824,
    "viewers": 4825,
    "jum": 4826,
    "bling": 4827,
    "sle": 4828,
    "throw": 4829,
    "swe": 4830,
    "1931": 4831,
    "asco": 4832,
    "amy": 4833,
    "edit": 4834,
    "virgin": 4835,
    "seems": 4836,
    "geo": 4837,
    "mound": 4838,
    "architectural": 4839,
    "columns": 4840,
    "kele": 4841,
    "riding": 4842,
    "blast": 4843,
    "idation": 4844,
    "machine": 4845,
    "casual": 4846,
    "finishing": 4847,
    "rainfall": 4848,
    "protests": 4849,
    "cutting": 4850,
    "trin": 4851,
    "berg": 4852,
    "kins": 4853,
    "beaten": 4854,
    "morrison": 4855,
    "territories": 4856,
    "educational": 4857,
    "directors": 4858,
    "trip": 4859,
    "partial": 4860,
    "pical": 4861,
    "colour": 4862,
    "stib": 4863,
    "windows": 4864,
    "pam": 4865,
    "chapat": 4866,
    "crex": 4867,
    "palestin": 4868,
    "depaul": 4869,
    "gameplay": 4870,
    "oto": 4871,
    "enemy": 4872,
    "option": 4873,
    "episodes": 4874,
    "difficulty": 4875,
    "granted": 4876,
    "link": 4877,
    "target": 4878,
    "gained": 4879,
    "weapons": 4880,
    "orders": 4881,
    "protect": 4882,
    "formal": 4883,
    "onym": 4884,
    "needed": 4885,
    "retain": 4886,
    "essential": 4887,
    "systems": 4888,
    "ranged": 4889,
    "fought": 4890,
    "criticized": 4891,
    "pressing": 4892,
    "umes": 4893,
    "crim": 4894,
    "install": 4895,
    "expedition": 4896,
    "lee": 4897,
    "determin": 4898,
    "rumors": 4899,
    "confirmed": 4900,
    "assembled": 4901,
    "passage": 4902,
    "percussion": 4903,
    "rifle": 4904,
    "900": 4905,
    "rifles": 4906,
    "somewhat": 4907,
    "sket": 4908,
    "5th": 4909,
    "3rd": 4910,
    "mounted": 4911,
    "suitable": 4912,
    "lieutenant": 4913,
    "sanford": 4914,
    "painted": 4915,
    "marks": 4916,
    "renamed": 4917,
    "roads": 4918,
    "1917": 4919,
    "1936": 4920,
    "science": 4921,
    "1973": 4922,
    "correspond": 4923,
    "earliest": 4924,
    "collaboration": 4925,
    "wasn": 4926,
    "elder": 4927,
    "evening": 4928,
    "teaching": 4929,
    "bought": 4930,
    "wings": 4931,
    "sacred": 4932,
    "recommended": 4933,
    "pursue": 4934,
    "flat": 4935,
    "choice": 4936,
    "1938": 4937,
    "tells": 4938,
    "beaut": 4939,
    "recognised": 4940,
    "organised": 4941,
    "youth": 4942,
    "opportunity": 4943,
    "wealth": 4944,
    "tip": 4945,
    "closely": 4946,
    "ov": 4947,
    "measure": 4948,
    "senators": 4949,
    "moore": 4950,
    "moment": 4951,
    "frame": 4952,
    "suffering": 4953,
    "intention": 4954,
    "minnes": 4955,
    "minnesota": 4956,
    "letter": 4957,
    "insurance": 4958,
    "correct": 4959,
    "propos": 4960,
    "alan": 4961,
    "proceeded": 4962,
    "penalty": 4963,
    "weigh": 4964,
    "statistics": 4965,
    "collect": 4966,
    "commo": 4967,
    "implement": 4968,
    "itated": 4969,
    "decorated": 4970,
    "forth": 4971,
    "begins": 4972,
    "wooden": 4973,
    "crow": 4974,
    "alternative": 4975,
    "rural": 4976,
    "casem": 4977,
    "blockade": 4978,
    "fingal": 4979,
    "voy": 4980,
    "mond": 4981,
    "41": 4982,
    "oriented": 4983,
    "pound": 4984,
    "solid": 4985,
    "pole": 4986,
    "demonstrated": 4987,
    "atlantic": 4988,
    "fragments": 4989,
    "disabled": 4990,
    "resist": 4991,
    "sydney": 4992,
    "chester": 4993,
    "model": 4994,
    "escape": 4995,
    "ama": 4996,
    "posite": 4997,
    "romantic": 4998,
    "violent": 4999,
    "jun": 5000,
    "dome": 5001,
    "crime": 5002,
    "ror": 5003,
    "amit": 5004,
    "animals": 5005,
    "income": 5006,
    "cosmo": 5007,
    "leaf": 5008,
    "prefer": 5009,
    "minim": 5010,
    "alexander": 5011,
    "sympto": 5012,
    "symptoms": 5013,
    "contact": 5014,
    "realized": 5015,
    "stood": 5016,
    "jr": 5017,
    "ancon": 5018,
    "ancona": 5019,
    "repl": 5020,
    "outbreak": 5021,
    "assault": 5022,
    "myths": 5023,
    "writings": 5024,
    "seated": 5025,
    "strongly": 5026,
    "absor": 5027,
    "ruption": 5028,
    "constant": 5029,
    "drin": 5030,
    "ivity": 5031,
    "produces": 5032,
    "drawing": 5033,
    "statues": 5034,
    "titles": 5035,
    "athor": 5036,
    "stances": 5037,
    "practice": 5038,
    "credit": 5039,
    "passes": 5040,
    "intermediate": 5041,
    "status": 5042,
    "interaction": 5043,
    "hoped": 5044,
    "banks": 5045,
    "mandatory": 5046,
    "zil": 5047,
    "accounts": 5048,
    "aero": 5049,
    "helic": 5050,
    "helicop": 5051,
    "significance": 5052,
    "hunter": 5053,
    "classification": 5054,
    "fted": 5055,
    "roughly": 5056,
    "ching": 5057,
    "growing": 5058,
    "formally": 5059,
    "notably": 5060,
    "claiming": 5061,
    "concentration": 5062,
    "brist": 5063,
    "bristol": 5064,
    "destroyers": 5065,
    "slav": 5066,
    "ato": 5067,
    "collections": 5068,
    "µm": 5069,
    "rud": 5070,
    "denomination": 5071,
    "institution": 5072,
    "amounts": 5073,
    "attacked": 5074,
    "coined": 5075,
    "closer": 5076,
    "candidate": 5077,
    "items": 5078,
    "arsenic": 5079,
    "resigned": 5080,
    "election": 5081,
    "storylines": 5082,
    "remember": 5083,
    "brut": 5084,
    "strand": 5085,
    "frequent": 5086,
    "involvement": 5087,
    "liked": 5088,
    "hote": 5089,
    "trust": 5090,
    "weekend": 5091,
    "update": 5092,
    "exposed": 5093,
    "longest": 5094,
    "category": 5095,
    "pregnancy": 5096,
    "34": 5097,
    "doesn": 5098,
    "planet": 5099,
    "unesco": 5100,
    "trim": 5101,
    "yan": 5102,
    "carving": 5103,
    "ressed": 5104,
    "skele": 5105,
    "spector": 5106,
    "learned": 5107,
    "contributed": 5108,
    "rig": 5109,
    "ques": 5110,
    "reconstruction": 5111,
    "jews": 5112,
    "apse": 5113,
    "banned": 5114,
    "constitut": 5115,
    "averaged": 5116,
    "averaging": 5117,
    "defender": 5118,
    "forty": 5119,
    "soviets": 5120,
    "publishing": 5121,
    "norman": 5122,
    "reactor": 5123,
    "outing": 5124,
    "scheer": 5125,
    "kent": 5126,
    "chestnut": 5127,
    "variation": 5128,
    "evans": 5129,
    "beds": 5130,
    "krasnyi": 5131,
    "median": 5132,
    "tropical": 5133,
    "flee": 5134,
    "1976": 5135,
    "surger": 5136,
    "surgery": 5137,
    "bang": 5138,
    "asia": 5139,
    "flame": 5140,
    "promiscu": 5141,
    "nha": 5142,
    "vasco": 5143,
    "gama": 5144,
    "wintering": 5145,
    "clair": 5146,
    "alle": 5147,
    "spee": 5148,
    "occurs": 5149,
    "spective": 5150,
    "skills": 5151,
    "inn": 5152,
    "interests": 5153,
    "decides": 5154,
    "incorporated": 5155,
    "entially": 5156,
    "heard": 5157,
    "tone": 5158,
    "sized": 5159,
    "arranged": 5160,
    "responsibility": 5161,
    "acity": 5162,
    "copy": 5163,
    "topped": 5164,
    "limit": 5165,
    "dv": 5166,
    "consequ": 5167,
    "illustrated": 5168,
    "ki": 5169,
    "volu": 5170,
    "volume": 5171,
    "downtown": 5172,
    "appropri": 5173,
    "ammun": 5174,
    "ammunition": 5175,
    "deleg": 5176,
    "responded": 5177,
    "sic": 5178,
    "interpreted": 5179,
    "agreement": 5180,
    "substant": 5181,
    "infan": 5182,
    "infantry": 5183,
    "regiment": 5184,
    "completely": 5185,
    "laboratory": 5186,
    "ols": 5187,
    "nothing": 5188,
    "engage": 5189,
    "chapter": 5190,
    "employment": 5191,
    "enlisted": 5192,
    "pack": 5193,
    "repaired": 5194,
    "basement": 5195,
    "northwest": 5196,
    "deploy": 5197,
    "roots": 5198,
    "electric": 5199,
    "administration": 5200,
    "edmund": 5201,
    "tu": 5202,
    "prize": 5203,
    "iser": 5204,
    "paintings": 5205,
    "accompany": 5206,
    "1924": 5207,
    "receiv": 5208,
    "receiving": 5209,
    "collaborated": 5210,
    "1989": 5211,
    "admitted": 5212,
    "spons": 5213,
    "rush": 5214,
    "1930s": 5215,
    "printed": 5216,
    "1957": 5217,
    "fifa": 5218,
    "challenge": 5219,
    "habitats": 5220,
    "gray": 5221,
    "bands": 5222,
    "thor": 5223,
    "caught": 5224,
    "elev": 5225,
    "measuring": 5226,
    "irt": 5227,
    "shor": 5228,
    "62": 5229,
    "sustained": 5230,
    "threat": 5231,
    "1959": 5232,
    "controvers": 5233,
    "eighth": 5234,
    "exchange": 5235,
    "negot": 5236,
    "ott": 5237,
    "expect": 5238,
    "string": 5239,
    "permission": 5240,
    "picked": 5241,
    "understanding": 5242,
    "vote": 5243,
    "amaz": 5244,
    "lor": 5245,
    "phas": 5246,
    "sets": 5247,
    "shots": 5248,
    "expans": 5249,
    "depth": 5250,
    "offers": 5251,
    "villa": 5252,
    "circular": 5253,
    "centuries": 5254,
    "revival": 5255,
    "gift": 5256,
    "1889": 5257,
    "1905": 5258,
    "erected": 5259,
    "iling": 5260,
    "running": 5261,
    "ming": 5262,
    "columbia": 5263,
    "composition": 5264,
    "address": 5265,
    "boards": 5266,
    "talent": 5267,
    "gang": 5268,
    "92": 5269,
    "cree": 5270,
    "82": 5271,
    "georgia": 5272,
    "monitors": 5273,
    "tland": 5274,
    "beam": 5275,
    "700": 5276,
    "stro": 5277,
    "uda": 5278,
    "embarked": 5279,
    "richmond": 5280,
    "stephen": 5281,
    "mall": 5282,
    "brothers": 5283,
    "deck": 5284,
    "pier": 5285,
    "mounts": 5286,
    "kg": 5287,
    "weight": 5288,
    "circulation": 5289,
    "heat": 5290,
    "enses": 5291,
    "pene": 5292,
    "dahl": 5293,
    "wounded": 5294,
    "ibly": 5295,
    "apparently": 5296,
    "graduated": 5297,
    "communication": 5298,
    "thrill": 5299,
    "nomination": 5300,
    "1980s": 5301,
    "opposite": 5302,
    "kum": 5303,
    "kumar": 5304,
    "pleas": 5305,
    "departure": 5306,
    "gets": 5307,
    "definition": 5308,
    "wed": 5309,
    "mind": 5310,
    "fash": 5311,
    "1964": 5312,
    "hart": 5313,
    "scorer": 5314,
    "chose": 5315,
    "universities": 5316,
    "84": 5317,
    "offensive": 5318,
    "ctors": 5319,
    "loud": 5320,
    "recognition": 5321,
    "bombardment": 5322,
    "armament": 5323,
    "surrounded": 5324,
    "oration": 5325,
    "slo": 5326,
    "beliefs": 5327,
    "core": 5328,
    "phara": 5329,
    "pharaoh": 5330,
    "pray": 5331,
    "hiero": 5332,
    "hierogly": 5333,
    "icon": 5334,
    "regions": 5335,
    "rulers": 5336,
    "deaths": 5337,
    "causing": 5338,
    "aggressive": 5339,
    "renew": 5340,
    "express": 5341,
    "describe": 5342,
    "province": 5343,
    "dynam": 5344,
    "periods": 5345,
    "soul": 5346,
    "asserted": 5347,
    "describes": 5348,
    "arg": 5349,
    "materials": 5350,
    "headed": 5351,
    "isolated": 5352,
    "statue": 5353,
    "wrong": 5354,
    "faith": 5355,
    "persist": 5356,
    "mons": 5357,
    "suic": 5358,
    "suicide": 5359,
    "ardo": 5360,
    "promotional": 5361,
    "decade": 5362,
    "shoot": 5363,
    "ifications": 5364,
    "operating": 5365,
    "gliders": 5366,
    "trained": 5367,
    "1972": 5368,
    "fra": 5369,
    "titive": 5370,
    "operate": 5371,
    "oxford": 5372,
    "eria": 5373,
    "guide": 5374,
    "severely": 5375,
    "yu": 5376,
    "geopy": 5377,
    "geopyx": 5378,
    "geopyxis": 5379,
    "burned": 5380,
    "irregular": 5381,
    "lod": 5382,
    "moderate": 5383,
    "izing": 5384,
    "mck": 5385,
    "mckay": 5386,
    "grounds": 5387,
    "massach": 5388,
    "massachu": 5389,
    "massachuset": 5390,
    "massachusetts": 5391,
    "mel": 5392,
    "revers": 5393,
    "facility": 5394,
    "reactions": 5395,
    "hil": 5396,
    "cycl": 5397,
    "aine": 5398,
    "application": 5399,
    "reagent": 5400,
    "eric": 5401,
    "derived": 5402,
    "recall": 5403,
    "conspir": 5404,
    "sexuality": 5405,
    "graphic": 5406,
    "rical": 5407,
    "confront": 5408,
    "speak": 5409,
    "pup": 5410,
    "wit": 5411,
    "bled": 5412,
    "emotional": 5413,
    "ners": 5414,
    "prohibited": 5415,
    "bush": 5416,
    "kil": 5417,
    "kilo": 5418,
    "burial": 5419,
    "stock": 5420,
    "1949": 5421,
    "globe": 5422,
    "ratings": 5423,
    "watching": 5424,
    "virginia": 5425,
    "sully": 5426,
    "buy": 5427,
    "martin": 5428,
    "theaters": 5429,
    "giant": 5430,
    "pregnant": 5431,
    "couple": 5432,
    "deprec": 5433,
    "defended": 5434,
    "someone": 5435,
    "produc": 5436,
    "producers": 5437,
    "massive": 5438,
    "metallic": 5439,
    "asi": 5440,
    "sq": 5441,
    "kon": 5442,
    "trimur": 5443,
    "trimurti": 5444,
    "axis": 5445,
    "ravan": 5446,
    "ravana": 5447,
    "gambling": 5448,
    "rescent": 5449,
    "friez": 5450,
    "frieze": 5451,
    "measures": 5452,
    "vai": 5453,
    "atus": 5454,
    "proli": 5455,
    "pushing": 5456,
    "zilto": 5457,
    "ziltoid": 5458,
    "casualties": 5459,
    "ost": 5460,
    "highlight": 5461,
    "teenth": 5462,
    "camps": 5463,
    "pson": 5464,
    "easter": 5465,
    "belle": 5466,
    "climate": 5467,
    "1990s": 5468,
    "prisoners": 5469,
    "trinsey": 5470,
    "nets": 5471,
    "olymp": 5472,
    "cats": 5473,
    "63": 5474,
    "flor": 5475,
    "florida": 5476,
    "rod": 5477,
    "bid": 5478,
    "ino": 5479,
    "nazis": 5480,
    "annex": 5481,
    "intel": 5482,
    "intellect": 5483,
    "für": 5484,
    "metic": 5485,
    "authors": 5486,
    "stefan": 5487,
    "zan": 5488,
    "kö": 5489,
    "nig": 5490,
    "megalithic": 5491,
    "bee": 5492,
    "genre": 5493,
    "acle": 5494,
    "bells": 5495,
    "digital": 5496,
    "genes": 5497,
    "dharm": 5498,
    "dharmend": 5499,
    "dharmendra": 5500,
    "hbo": 5501,
    "yeov": 5502,
    "yeovil": 5503,
    "baht": 5504,
    "cns": 5505,
    "sonth": 5506,
    "sonthi": 5507,
    "deput": 5508,
    "deputy": 5509,
    "bangk": 5510,
    "bangkok": 5511,
    "urg": 5512,
    "vau": 5513,
    "vaudev": 5514,
    "vaudeville": 5515,
    "castle": 5516,
    "cornwallis": 5517,
    "strachan": 5518,
    "promiscuous": 5519,
    "mane": 5520,
    "maneater": 5521,
    "ucl": 5522,
    "subcontinent": 5523,
    "dubious": 5524,
    "palestine": 5525,
    "boog": 5526,
    "boogie": 5527,
    "nights": 5528,
    "tigers": 5529,
    "rectory": 5530,
    "abnormalities": 5531,
    "subtypes": 5532,
    "cytogenetics": 5533,
    "prognostic": 5534,
    "professor": 5535,
    "playstation": 5536,
    "paralle": 5537,
    "follows": 5538,
    "underwent": 5539,
    "sak": 5540,
    "sung": 5541,
    "comic": 5542,
    "partially": 5543,
    "completion": 5544,
    "altered": 5545,
    "danger": 5546,
    "aus": 5547,
    "independence": 5548,
    "arrest": 5549,
    "escor": 5550,
    "card": 5551,
    "goes": 5552,
    "compon": 5553,
    "orchestra": 5554,
    "asy": 5555,
    "flu": 5556,
    "promote": 5557,
    "capacity": 5558,
    "feeling": 5559,
    "abilities": 5560,
    "legacy": 5561,
    "cros": 5562,
    "dvd": 5563,
    "purchase": 5564,
    "happened": 5565,
    "adaptation": 5566,
    "macarthur": 5567,
    "douglas": 5568,
    "terior": 5569,
    "connection": 5570,
    "surrender": 5571,
    "gur": 5572,
    "classified": 5573,
    "bron": 5574,
    "53": 5575,
    "smooth": 5576,
    "1863": 5577,
    "valuable": 5578,
    "neither": 5579,
    "rank": 5580,
    "persons": 5581,
    "130": 5582,
    "predomin": 5583,
    "loyal": 5584,
    "interior": 5585,
    "mountain": 5586,
    "1912": 5587,
    "1970": 5588,
    "relocated": 5589,
    "doro": 5590,
    "dorothy": 5591,
    "kate": 5592,
    "1908": 5593,
    "promise": 5594,
    "kinder": 5595,
    "kinderg": 5596,
    "kindergart": 5597,
    "kindergarten": 5598,
    "accompanying": 5599,
    "garden": 5600,
    "aven": 5601,
    "77": 5602,
    "scatter": 5603,
    "techno": 5604,
    "edward": 5605,
    "covers": 5606,
    "1928": 5607,
    "1916": 5608,
    "tis": 5609,
    "1948": 5610,
    "1946": 5611,
    "installed": 5612,
    "preservation": 5613,
    "1927": 5614,
    "43": 5615,
    "worldwide": 5616,
    "ifying": 5617,
    "tournament": 5618,
    "feed": 5619,
    "uter": 5620,
    "scientific": 5621,
    "genetic": 5622,
    "outer": 5623,
    "acles": 5624,
    "ils": 5625,
    "islands": 5626,
    "arte": 5627,
    "dwell": 5628,
    "receive": 5629,
    "requested": 5630,
    "controversial": 5631,
    "wski": 5632,
    "signing": 5633,
    "jason": 5634,
    "coaching": 5635,
    "temporarily": 5636,
    "deadline": 5637,
    "trying": 5638,
    "sitting": 5639,
    "interim": 5640,
    "arena": 5641,
    "rook": 5642,
    "rookie": 5643,
    "stopped": 5644,
    "adding": 5645,
    "deliber": 5646,
    "campbell": 5647,
    "combination": 5648,
    "eliminated": 5649,
    "expansion": 5650,
    "listing": 5651,
    "astron": 5652,
    "commodo": 5653,
    "commodore": 5654,
    "departed": 5655,
    "gallery": 5656,
    "christop": 5657,
    "jes": 5658,
    "flanked": 5659,
    "plate": 5660,
    "cope": 5661,
    "roof": 5662,
    "shif": 5663,
    "strength": 5664,
    "inspiration": 5665,
    "garn": 5666,
    "studios": 5667,
    "deplo": 5668,
    "newspapers": 5669,
    "travel": 5670,
    "railroad": 5671,
    "uss": 5672,
    "confederacy": 5673,
    "aground": 5674,
    "engines": 5675,
    "tub": 5676,
    "engers": 5677,
    "contribut": 5678,
    "rails": 5679,
    "59": 5680,
    "angular": 5681,
    "stern": 5682,
    "110": 5683,
    "waters": 5684,
    "pull": 5685,
    "aboard": 5686,
    "penetr": 5687,
    "resistance": 5688,
    "require": 5689,
    "lawy": 5690,
    "neut": 5691,
    "recru": 5692,
    "iled": 5693,
    "arabic": 5694,
    "hollywood": 5695,
    "mah": 5696,
    "confused": 5697,
    "gross": 5698,
    "filmm": 5699,
    "reput": 5700,
    "reputation": 5701,
    "contained": 5702,
    "veget": 5703,
    "holy": 5704,
    "horse": 5705,
    "funds": 5706,
    "twel": 5707,
    "comeback": 5708,
    "dealer": 5709,
    "convinced": 5710,
    "concerns": 5711,
    "tum": 5712,
    "interested": 5713,
    "spend": 5714,
    "raise": 5715,
    "lau": 5716,
    "sunk": 5717,
    "kw": 5718,
    "offerings": 5719,
    "inations": 5720,
    "diverse": 5721,
    "beings": 5722,
    "pto": 5723,
    "estimates": 5724,
    "divin": 5725,
    "perfect": 5726,
    "resemble": 5727,
    "rever": 5728,
    "itive": 5729,
    "thesis": 5730,
    "priests": 5731,
    "oversaw": 5732,
    "fert": 5733,
    "universal": 5734,
    "cha": 5735,
    "chaos": 5736,
    "constantly": 5737,
    "disorder": 5738,
    "boundaries": 5739,
    "advis": 5740,
    "archy": 5741,
    "imag": 5742,
    "die": 5743,
    "poorly": 5744,
    "ithe": 5745,
    "conve": 5746,
    "circum": 5747,
    "circumstances": 5748,
    "bat": 5749,
    "insist": 5750,
    "dog": 5751,
    "useful": 5752,
    "atures": 5753,
    "dress": 5754,
    "ruled": 5755,
    "resc": 5756,
    "tempo": 5757,
    "matters": 5758,
    "avoid": 5759,
    "silent": 5760,
    "experiment": 5761,
    "del": 5762,
    "seriously": 5763,
    "vint": 5764,
    "vintage": 5765,
    "glider": 5766,
    "favour": 5767,
    "regarding": 5768,
    "parties": 5769,
    "employe": 5770,
    "ula": 5771,
    "races": 5772,
    "licens": 5773,
    "licensed": 5774,
    "weather": 5775,
    "profit": 5776,
    "appropriate": 5777,
    "ifically": 5778,
    "legislation": 5779,
    "bure": 5780,
    "bureau": 5781,
    "iss": 5782,
    "rie": 5783,
    "abroad": 5784,
    "collapsed": 5785,
    "simult": 5786,
    "simultane": 5787,
    "entirely": 5788,
    "1879": 5789,
    "oring": 5790,
    "donald": 5791,
    "odor": 5792,
    "sulfur": 5793,
    "forest": 5794,
    "enz": 5795,
    "colleagues": 5796,
    "engra": 5797,
    "persu": 5798,
    "liberty": 5799,
    "vast": 5800,
    "eagle": 5801,
    "proposal": 5802,
    "annular": 5803,
    "senate": 5804,
    "weekly": 5805,
    "surviving": 5806,
    "agricul": 5807,
    "agricultural": 5808,
    "1878": 5809,
    "format": 5810,
    "classical": 5811,
    "ci": 5812,
    "las": 5813,
    "blown": 5814,
    "leaders": 5815,
    "opponents": 5816,
    "resignation": 5817,
    "affairs": 5818,
    "bern": 5819,
    "instrumental": 5820,
    "mere": 5821,
    "assassins": 5822,
    "brutal": 5823,
    "facts": 5824,
    "theatrical": 5825,
    "lyn": 5826,
    "mol": 5827,
    "policies": 5828,
    "ín": 5829,
    "witness": 5830,
    "sleep": 5831,
    "unsuccessful": 5832,
    "politic": 5833,
    "salv": 5834,
    "turk": 5835,
    "reference": 5836,
    "plag": 5837,
    "plagiar": 5838,
    "spain": 5839,
    "1945": 5840,
    "pher": 5841,
    "deser": 5842,
    "searching": 5843,
    "administr": 5844,
    "coul": 5845,
    "mitch": 5846,
    "mitchell": 5847,
    "1947": 5848,
    "republ": 5849,
    "republican": 5850,
    "hotel": 5851,
    "sara": 5852,
    "poehl": 5853,
    "poehler": 5854,
    "lix": 5855,
    "acclaim": 5856,
    "rants": 5857,
    "elementary": 5858,
    "aired": 5859,
    "gate": 5860,
    "brigade": 5861,
    "manual": 5862,
    "orb": 5863,
    "kal": 5864,
    "kail": 5865,
    "kailash": 5866,
    "vish": 5867,
    "vishnu": 5868,
    "numbered": 5869,
    "tourist": 5870,
    "opera": 5871,
    "hunt": 5872,
    "itled": 5873,
    "drinking": 5874,
    "footage": 5875,
    "techniques": 5876,
    "williams": 5877,
    "cel": 5878,
    "corner": 5879,
    "confisc": 5880,
    "photographs": 5881,
    "vac": 5882,
    "industries": 5883,
    "surveill": 5884,
    "surveillance": 5885,
    "wearing": 5886,
    "bbc": 5887,
    "roc": 5888,
    "1982": 5889,
    "controver": 5890,
    "controversy": 5891,
    "knicks": 5892,
    "annexed": 5893,
    "krak": 5894,
    "kraków": 5895,
    "imier": 5896,
    "imierz": 5897,
    "arih": 5898,
    "arihant": 5899,
    "hits": 5900,
    "belt": 5901,
    "millimeters": 5902,
    "barrows": 5903,
    "coty": 5904,
    "ashbee": 5905,
    "antiquaries": 5906,
    "kav": 5907,
    "kavkaz": 5908,
    "eleven": 5909,
    "poll": 5910,
    "rca": 5911,
    "platin": 5912,
    "platinum": 5913,
    "hindi": 5914,
    "mehbo": 5915,
    "mehbooba": 5916,
    "pton": 5917,
    "telecom": 5918,
    "anupong": 5919,
    "tellich": 5920,
    "tellicher": 5921,
    "tellicherry": 5922,
    "bowman": 5923,
    "jarvis": 5924,
    "immemorial": 5925,
    "trioxide": 5926,
    "boliv": 5927,
    "campus": 5928,
    "welsh": 5929,
    "ml": 5930,
    "somal": 5931,
    "adams": 5932,
    "phr": 5933,
    "phrase": 5934,
    "pitched": 5935,
    "nach": 5936,
    "nachtig": 5937,
    "nachtigall": 5938,
    "soap": 5939,
    "opined": 5940,
    "angelo": 5941,
    "livin": 5942,
    "aza": 5943,
    "brood": 5944,
    "prognosis": 5945,
    "leukemi": 5946,
    "leukemias": 5947,
    "faculty": 5948,
    "petro": 5949,
    "palestinian": 5950,
    "japanese": 5951,
    "battlefield": 5952,
    "commonly": 5953,
    "retained": 5954,
    "composer": 5955,
    "download": 5956,
    "transl": 5957,
    "iced": 5958,
    "speech": 5959,
    "gradually": 5960,
    "maps": 5961,
    "moves": 5962,
    "otherwise": 5963,
    "weapon": 5964,
    "gallian": 5965,
    "seek": 5966,
    "prove": 5967,
    "none": 5968,
    "revolutionary": 5969,
    "designs": 5970,
    "identify": 5971,
    "chosen": 5972,
    "enjoyed": 5973,
    "putting": 5974,
    "remo": 5975,
    "ryan": 5976,
    "foc": 5977,
    "focused": 5978,
    "veh": 5979,
    "eline": 5980,
    "flowers": 5981,
    "housed": 5982,
    "æs": 5983,
    "æsthetic": 5984,
    "supre": 5985,
    "totten": 5986,
    "determined": 5987,
    "mess": 5988,
    "supposed": 5989,
    "ultimate": 5990,
    "destination": 5991,
    "believing": 5992,
    "gency": 5993,
    "authorized": 5994,
    "stayed": 5995,
    "substantial": 5996,
    "iments": 5997,
    "sufficient": 5998,
    "cured": 5999,
    "inity": 6000,
    "borrow": 6001,
    "dunning": 6002,
    "dunnington": 6003,
    "functions": 6004,
    "colonel": 6005,
    "evac": 6006,
    "evacu": 6007,
    "rendered": 6008,
    "barr": 6009,
    "conclusion": 6010,
    "courses": 6011,
    "hym": 6012,
    "fairy": 6013,
    "remark": 6014,
    "freedom": 6015,
    "submitted": 6016,
    "clay": 6017,
    "solely": 6018,
    "yorkshire": 6019,
    "maid": 6020,
    "1983": 6021,
    "childhood": 6022,
    "printing": 6023,
    "technology": 6024,
    "studied": 6025,
    "jones": 6026,
    "dust": 6027,
    "lined": 6028,
    "1933": 6029,
    "1934": 6030,
    "1921": 6031,
    "withdrew": 6032,
    "faces": 6033,
    "narrow": 6034,
    "pool": 6035,
    "qualified": 6036,
    "affil": 6037,
    "ey": 6038,
    "eyes": 6039,
    "lesser": 6040,
    "taxonomy": 6041,
    "organisation": 6042,
    "si": 6043,
    "tent": 6044,
    "dna": 6045,
    "cry": 6046,
    "split": 6047,
    "pin": 6048,
    "habitat": 6049,
    "queens": 6050,
    "fers": 6051,
    "substrate": 6052,
    "functional": 6053,
    "pled": 6054,
    "essed": 6055,
    "selection": 6056,
    "prospect": 6057,
    "howson": 6058,
    "ottawa": 6059,
    "allen": 6060,
    "struggle": 6061,
    "gling": 6062,
    "clubs": 6063,
    "hitch": 6064,
    "hitchcock": 6065,
    "vancou": 6066,
    "vancouver": 6067,
    "discuss": 6068,
    "coy": 6069,
    "dean": 6070,
    "phase": 6071,
    "indicates": 6072,
    "worn": 6073,
    "teammates": 6074,
    "vatican": 6075,
    "approval": 6076,
    "87": 6077,
    "bear": 6078,
    "rooms": 6079,
    "enclosed": 6080,
    "rafa": 6081,
    "rafael": 6082,
    "engineering": 6083,
    "illy": 6084,
    "everyone": 6085,
    "wy": 6086,
    "streets": 6087,
    "creek": 6088,
    "visible": 6089,
    "railway": 6090,
    "ignment": 6091,
    "vertical": 6092,
    "bullo": 6093,
    "bulloch": 6094,
    "passengers": 6095,
    "slowly": 6096,
    "join": 6097,
    "cot": 6098,
    "layers": 6099,
    "pine": 6100,
    "rectangular": 6101,
    "sive": 6102,
    "spar": 6103,
    "virt": 6104,
    "tense": 6105,
    "manner": 6106,
    "tide": 6107,
    "wee": 6108,
    "crews": 6109,
    "tren": 6110,
    "sailed": 6111,
    "jacqu": 6112,
    "lanka": 6113,
    "thriller": 6114,
    "grossing": 6115,
    "unrest": 6116,
    "jeev": 6117,
    "failure": 6118,
    "malin": 6119,
    "malini": 6120,
    "boring": 6121,
    "starring": 6122,
    "shar": 6123,
    "amitab": 6124,
    "amitabh": 6125,
    "separated": 6126,
    "filming": 6127,
    "munic": 6128,
    "municipal": 6129,
    "sanct": 6130,
    "helps": 6131,
    "victims": 6132,
    "ceremon": 6133,
    "resta": 6134,
    "ador": 6135,
    "accordingly": 6136,
    "fourteenth": 6137,
    "celebrity": 6138,
    "diagnosed": 6139,
    "gary": 6140,
    "93": 6141,
    "98": 6142,
    "transplant": 6143,
    "cleve": 6144,
    "cleveland": 6145,
    "spending": 6146,
    "settled": 6147,
    "awareness": 6148,
    "rane": 6149,
    "prope": 6150,
    "triple": 6151,
    "tubes": 6152,
    "ilized": 6153,
    "attempting": 6154,
    "stations": 6155,
    "aimed": 6156,
    "ena": 6157,
    "asks": 6158,
    "combinations": 6159,
    "atenism": 6160,
    "fundament": 6161,
    "logist": 6162,
    "thousands": 6163,
    "phs": 6164,
    "traits": 6165,
    "mann": 6166,
    "prehistoric": 6167,
    "artwork": 6168,
    "vener": 6169,
    "elite": 6170,
    "percept": 6171,
    "nile": 6172,
    "spher": 6173,
    "argues": 6174,
    "divinities": 6175,
    "hostile": 6176,
    "landsc": 6177,
    "landscape": 6178,
    "funerary": 6179,
    "cannot": 6180,
    "preced": 6181,
    "linked": 6182,
    "55": 6183,
    "epithe": 6184,
    "hathor": 6185,
    "dynamic": 6186,
    "herent": 6187,
    "itude": 6188,
    "reader": 6189,
    "interchange": 6190,
    "dominant": 6191,
    "liken": 6192,
    "descript": 6193,
    "tight": 6194,
    "pure": 6195,
    "decisions": 6196,
    "evil": 6197,
    "rebell": 6198,
    "rebellion": 6199,
    "legend": 6200,
    "muslim": 6201,
    "geff": 6202,
    "geffen": 6203,
    "adri": 6204,
    "lomb": 6205,
    "singing": 6206,
    "pse": 6207,
    "sacrif": 6208,
    "sacrifice": 6209,
    "kid": 6210,
    "doz": 6211,
    "rendition": 6212,
    "registered": 6213,
    "annually": 6214,
    "airworth": 6215,
    "airworthiness": 6216,
    "exhibits": 6217,
    "restrictions": 6218,
    "championships": 6219,
    "circu": 6220,
    "circuit": 6221,
    "wider": 6222,
    "criteria": 6223,
    "tenance": 6224,
    "effective": 6225,
    "segment": 6226,
    "specifically": 6227,
    "expensive": 6228,
    "inhib": 6229,
    "croatian": 6230,
    "accompan": 6231,
    "accompanied": 6232,
    "organic": 6233,
    "1853": 6234,
    "pale": 6235,
    "rh": 6236,
    "christopher": 6237,
    "cht": 6238,
    "mints": 6239,
    "finance": 6240,
    "hud": 6241,
    "hudson": 6242,
    "difference": 6243,
    "franklin": 6244,
    "warned": 6245,
    "favorable": 6246,
    "puck": 6247,
    "locally": 6248,
    "eliminate": 6249,
    "1854": 6250,
    "ensure": 6251,
    "secured": 6252,
    "doors": 6253,
    "1870": 6254,
    "oselect": 6255,
    "phor": 6256,
    "stronger": 6257,
    "depends": 6258,
    "ylides": 6259,
    "otic": 6260,
    "yield": 6261,
    "methods": 6262,
    "failing": 6263,
    "ciud": 6264,
    "ciudad": 6265,
    "rez": 6266,
    "barra": 6267,
    "occasions": 6268,
    "supporters": 6269,
    "escap": 6270,
    "cuaut": 6271,
    "cuautla": 6272,
    "oing": 6273,
    "iliation": 6274,
    "agen": 6275,
    "afterma": 6276,
    "aftermath": 6277,
    "corruption": 6278,
    "machis": 6279,
    "machismo": 6280,
    "returns": 6281,
    "tort": 6282,
    "torture": 6283,
    "rape": 6284,
    "cub": 6285,
    "personality": 6286,
    "impl": 6287,
    "historians": 6288,
    "internal": 6289,
    "trig": 6290,
    "plagiarism": 6291,
    "fighters": 6292,
    "avi": 6293,
    "replacing": 6294,
    "therine": 6295,
    "strained": 6296,
    "shipping": 6297,
    "aves": 6298,
    "impression": 6299,
    "honour": 6300,
    "guild": 6301,
    "commercials": 6302,
    "2000s": 6303,
    "scientists": 6304,
    "decre": 6305,
    "inde": 6306,
    "harbour": 6307,
    "cuts": 6308,
    "feud": 6309,
    "showing": 6310,
    "cite": 6311,
    "itals": 6312,
    "thread": 6313,
    "skeleton": 6314,
    "crescent": 6315,
    "tourism": 6316,
    "rivers": 6317,
    "shoulder": 6318,
    "ruined": 6319,
    "moon": 6320,
    "linga": 6321,
    "consol": 6322,
    "explains": 6323,
    "tape": 6324,
    "accomplished": 6325,
    "considers": 6326,
    "begun": 6327,
    "thereafter": 6328,
    "drugs": 6329,
    "morgan": 6330,
    "genres": 6331,
    "praš": 6332,
    "praška": 6333,
    "motif": 6334,
    "nave": 6335,
    "confiscated": 6336,
    "mayor": 6337,
    "itic": 6338,
    "offshore": 6339,
    "jersey": 6340,
    "arrival": 6341,
    "survivors": 6342,
    "conduct": 6343,
    "neighbour": 6344,
    "opposing": 6345,
    "emily": 6346,
    "amendment": 6347,
    "constitutional": 6348,
    "scr": 6349,
    "hornets": 6350,
    "marke": 6351,
    "younger": 6352,
    "juni": 6353,
    "junior": 6354,
    "why": 6355,
    "niel": 6356,
    "rodman": 6357,
    "chant": 6358,
    "bobby": 6359,
    "studying": 6360,
    "thompson": 6361,
    "clearly": 6362,
    "ike": 6363,
    "intellectual": 6364,
    "wart": 6365,
    "stanis": 6366,
    "stanisław": 6367,
    "wł": 6368,
    "het": 6369,
    "doctoral": 6370,
    "iqu": 6371,
    "ira": 6372,
    "construct": 6373,
    "könig": 6374,
    "grosser": 6375,
    "kurfür": 6376,
    "kurfürst": 6377,
    "battlecruisers": 6378,
    "punch": 6379,
    "bce": 6380,
    "thames": 6381,
    "petri": 6382,
    "petrie": 6383,
    "nett": 6384,
    "arter": 6385,
    "arterial": 6386,
    "1967": 6387,
    "ote": 6388,
    "garage": 6389,
    "marking": 6390,
    "stim": 6391,
    "ulate": 6392,
    "daco": 6393,
    "bhad": 6394,
    "bhaduri": 6395,
    "agara": 6396,
    "dialogu": 6397,
    "dialogues": 6398,
    "basanti": 6399,
    "viewed": 6400,
    "galore": 6401,
    "hereford": 6402,
    "junt": 6403,
    "junta": 6404,
    "swallowing": 6405,
    "liqu": 6406,
    "carn": 6407,
    "frig": 6408,
    "fleetwo": 6409,
    "fleetwood": 6410,
    "coulson": 6411,
    "2s": 6412,
    "applications": 6413,
    "allo": 6414,
    "sbf": 6415,
    "honorary": 6416,
    "1907": 6417,
    "verte": 6418,
    "maximus": 6419,
    "differentiation": 6420,
    "labro": 6421,
    "labrosaurus": 6422,
    "kore": 6423,
    "moist": 6424,
    "moralit": 6425,
    "moralitas": 6426,
    "pitcher": 6427,
    "stony": 6428,
    "inning": 6429,
    "oma": 6430,
    "omaha": 6431,
    "freya": 6432,
    "grassland": 6433,
    "crakes": 6434,
    "migration": 6435,
    "chro": 6436,
    "chromo": 6437,
    "chromosomal": 6438,
    "clinical": 6439,
    "xinj": 6440,
    "xinjian": 6441,
    "xinjiang": 6442,
    "census": 6443,
    "tact": 6444,
    "stories": 6445,
    "bles": 6446,
    "depending": 6447,
    "knocked": 6448,
    "shift": 6449,
    "affect": 6450,
    "distributed": 6451,
    "crimin": 6452,
    "enders": 6453,
    "task": 6454,
    "revenge": 6455,
    "myster": 6456,
    "attached": 6457,
    "enemies": 6458,
    "predecessor": 6459,
    "plat": 6460,
    "platform": 6461,
    "graphics": 6462,
    "problem": 6463,
    "anime": 6464,
    "seg": 6465,
    "fant": 6466,
    "fantasy": 6467,
    "duty": 6468,
    "closure": 6469,
    "tations": 6470,
    "antiqu": 6471,
    "oldest": 6472,
    "supreme": 6473,
    "attract": 6474,
    "kir": 6475,
    "1860": 6476,
    "determ": 6477,
    "determine": 6478,
    "wait": 6479,
    "informed": 6480,
    "possession": 6481,
    "telling": 6482,
    "reinforcements": 6483,
    "pel": 6484,
    "situations": 6485,
    "civilian": 6486,
    "prompted": 6487,
    "emergency": 6488,
    "abra": 6489,
    "abraham": 6490,
    "inau": 6491,
    "instru": 6492,
    "superi": 6493,
    "repairs": 6494,
    "250": 6495,
    "invent": 6496,
    "bore": 6497,
    "sketch": 6498,
    "9th": 6499,
    "comprising": 6500,
    "machin": 6501,
    "machinery": 6502,
    "spirits": 6503,
    "tools": 6504,
    "vicinity": 6505,
    "equal": 6506,
    "spirit": 6507,
    "borrowed": 6508,
    "duties": 6509,
    "rounds": 6510,
    "96": 6511,
    "surrendered": 6512,
    "briefly": 6513,
    "acks": 6514,
    "closing": 6515,
    "1890": 6516,
    "exclusively": 6517,
    "artif": 6518,
    "displayed": 6519,
    "meetings": 6520,
    "veter": 6521,
    "anthro": 6522,
    "commemor": 6523,
    "principal": 6524,
    "artistic": 6525,
    "autum": 6526,
    "autumn": 6527,
    "youngest": 6528,
    "66": 6529,
    "olph": 6530,
    "afterward": 6531,
    "aste": 6532,
    "victorian": 6533,
    "pill": 6534,
    "readily": 6535,
    "focusing": 6536,
    "whit": 6537,
    "extent": 6538,
    "1960": 6539,
    "funeral": 6540,
    "warne": 6541,
    "properties": 6542,
    "clothing": 6543,
    "analy": 6544,
    "ais": 6545,
    "aces": 6546,
    "mr": 6547,
    "consc": 6548,
    "conscious": 6549,
    "1953": 6550,
    "feeding": 6551,
    "beautif": 6552,
    "beautiful": 6553,
    "1932": 6554,
    "challenges": 6555,
    "associations": 6556,
    "1968": 6557,
    "sof": 6558,
    "roph": 6559,
    "bears": 6560,
    "ened": 6561,
    "queensland": 6562,
    "timor": 6563,
    "product": 6564,
    "dd": 6565,
    "richards": 6566,
    "oming": 6567,
    "ank": 6568,
    "roster": 6569,
    "burgh": 6570,
    "russell": 6571,
    "blues": 6572,
    "percentage": 6573,
    "breaking": 6574,
    "stret": 6575,
    "trading": 6576,
    "talking": 6577,
    "urer": 6578,
    "opt": 6579,
    "bringing": 6580,
    "secure": 6581,
    "dropped": 6582,
    "ville": 6583,
    "drove": 6584,
    "restr": 6585,
    "restricted": 6586,
    "agents": 6587,
    "gregor": 6588,
    "gregorian": 6589,
    "connects": 6590,
    "reform": 6591,
    "gated": 6592,
    "omical": 6593,
    "reforms": 6594,
    "240": 6595,
    "merid": 6596,
    "gil": 6597,
    "97": 6598,
    "mete": 6599,
    "meteor": 6600,
    "transit": 6601,
    "jup": 6602,
    "locations": 6603,
    "initiated": 6604,
    "plates": 6605,
    "soph": 6606,
    "mechanism": 6607,
    "rhyth": 6608,
    "toler": 6609,
    "couldn": 6610,
    "clar": 6611,
    "lighted": 6612,
    "interse": 6613,
    "farmland": 6614,
    "calcul": 6615,
    "connecting": 6616,
    "supplies": 6617,
    "anchor": 6618,
    "mallory": 6619,
    "cotton": 6620,
    "hull": 6621,
    "displaced": 6622,
    "pounds": 6623,
    "leaked": 6624,
    "tatt": 6625,
    "tattn": 6626,
    "tattnall": 6627,
    "prevented": 6628,
    "webb": 6629,
    "weehaw": 6630,
    "weehawken": 6631,
    "pushed": 6632,
    "clean": 6633,
    "badly": 6634,
    "easily": 6635,
    "signal": 6636,
    "delivered": 6637,
    "260": 6638,
    "possibly": 6639,
    "neutral": 6640,
    "laws": 6641,
    "medium": 6642,
    "barry": 6643,
    "fiction": 6644,
    "whil": 6645,
    "whilst": 6646,
    "intent": 6647,
    "turning": 6648,
    "pleasure": 6649,
    "ogue": 6650,
    "till": 6651,
    "tiger": 6652,
    "satur": 6653,
    "saturday": 6654,
    "rash": 6655,
    "online": 6656,
    "fashion": 6657,
    "ranking": 6658,
    "preceding": 6659,
    "hartford": 6660,
    "tamp": 6661,
    "tampa": 6662,
    "sab": 6663,
    "ihl": 6664,
    "retiring": 6665,
    "anni": 6666,
    "annivers": 6667,
    "anniversary": 6668,
    "mario": 6669,
    "leadership": 6670,
    "tly": 6671,
    "austria": 6672,
    "recovery": 6673,
    "dreadnought": 6674,
    "1902": 6675,
    "pola": 6676,
    "ranean": 6677,
    "twelve": 6678,
    "millimeter": 6679,
    "fitted": 6680,
    "turkey": 6681,
    "kaiser": 6682,
    "lighter": 6683,
    "theistic": 6684,
    "relations": 6685,
    "fundamental": 6686,
    "references": 6687,
    "ety": 6688,
    "reminis": 6689,
    "reminiscent": 6690,
    "egg": 6691,
    "reflecting": 6692,
    "ritual": 6693,
    "realm": 6694,
    "devot": 6695,
    "devotion": 6696,
    "origins": 6697,
    "yn": 6698,
    "sie": 6699,
    "truth": 6700,
    "consistent": 6701,
    "perception": 6702,
    "civilization": 6703,
    "expand": 6704,
    "behavior": 6705,
    "disrup": 6706,
    "understand": 6707,
    "emotion": 6708,
    "motiv": 6709,
    "journey": 6710,
    "dissol": 6711,
    "existed": 6712,
    "accessible": 6713,
    "distant": 6714,
    "merge": 6715,
    "manifest": 6716,
    "thes": 6717,
    "consul": 6718,
    "ruling": 6719,
    "mono": 6720,
    "insisted": 6721,
    "1971": 6722,
    "horn": 6723,
    "allows": 6724,
    "dismissed": 6725,
    "ordinary": 6726,
    "pers": 6727,
    "flesh": 6728,
    "likened": 6729,
    "precise": 6730,
    "identity": 6731,
    "fis": 6732,
    "abund": 6733,
    "filled": 6734,
    "commands": 6735,
    "mention": 6736,
    "guid": 6737,
    "guidance": 6738,
    "rescue": 6739,
    "festiv": 6740,
    "accomplish": 6741,
    "performer": 6742,
    "obtain": 6743,
    "peak": 6744,
    "stel": 6745,
    "swallowed": 6746,
    "califor": 6747,
    "californ": 6748,
    "california": 6749,
    "hanne": 6750,
    "hanneman": 6751,
    "discussed": 6752,
    "odd": 6753,
    "feels": 6754,
    "laugh": 6755,
    "thinks": 6756,
    "blew": 6757,
    "matt": 6758,
    "sounding": 6759,
    "lies": 6760,
    "originated": 6761,
    "thinking": 6762,
    "isn": 6763,
    "replied": 6764,
    "commenting": 6765,
    "drums": 6766,
    "racing": 6767,
    "microlights": 6768,
    "regulatory": 6769,
    "licen": 6770,
    "licensing": 6771,
    "mail": 6772,
    "agricult": 6773,
    "agriculture": 6774,
    "advertise": 6775,
    "1909": 6776,
    "introduction": 6777,
    "infra": 6778,
    "infrastructure": 6779,
    "1960s": 6780,
    "mature": 6781,
    "microlight": 6782,
    "involves": 6783,
    "ller": 6784,
    "categories": 6785,
    "actual": 6786,
    "fuel": 6787,
    "maintenance": 6788,
    "corresponding": 6789,
    "excess": 6790,
    "judge": 6791,
    "erod": 6792,
    "discour": 6793,
    "concentrated": 6794,
    "adet": 6795,
    "firing": 6796,
    "wars": 6797,
    "mans": 6798,
    "aded": 6799,
    "simultaneously": 6800,
    "stands": 6801,
    "lodge": 6802,
    "fires": 6803,
    "engraver": 6804,
    "circulated": 6805,
    "rar": 6806,
    "jewel": 6807,
    "discussion": 6808,
    "preparation": 6809,
    "wre": 6810,
    "wreath": 6811,
    "salt": 6812,
    "probability": 6813,
    "indicate": 6814,
    "proof": 6815,
    "dahlone": 6816,
    "dahlonega": 6817,
    "borne": 6818,
    "1850": 6819,
    "pettit": 6820,
    "technique": 6821,
    "striking": 6822,
    "trouble": 6823,
    "ius": 6824,
    "susp": 6825,
    "umption": 6826,
    "seeking": 6827,
    "epo": 6828,
    "epox": 6829,
    "epoxides": 6830,
    "enanti": 6831,
    "sulfonium": 6832,
    "reversibility": 6833,
    "betaine": 6834,
    "drug": 6835,
    "provides": 6836,
    "cataly": 6837,
    "ee": 6838,
    "typical": 6839,
    "juá": 6840,
    "juárez": 6841,
    "mexican": 6842,
    "escaped": 6843,
    "luis": 6844,
    "possibility": 6845,
    "outr": 6846,
    "cabine": 6847,
    "cabinet": 6848,
    "remove": 6849,
    "ongoing": 6850,
    "violation": 6851,
    "reconc": 6852,
    "counting": 6853,
    "conspirators": 6854,
    "isa": 6855,
    "ana": 6856,
    "dancing": 6857,
    "finds": 6858,
    "agust": 6859,
    "agustín": 6860,
    "fasc": 6861,
    "finding": 6862,
    "celi": 6863,
    "tested": 6864,
    "affir": 6865,
    "obser": 6866,
    "1979": 6867,
    "bomber": 6868,
    "showed": 6869,
    "companion": 6870,
    "medal": 6871,
    "120": 6872,
    "cos": 6873,
    "considering": 6874,
    "aster": 6875,
    "beau": 6876,
    "sarah": 6877,
    "nis": 6878,
    "editor": 6879,
    "michaels": 6880,
    "atch": 6881,
    "premiere": 6882,
    "dreamworks": 6883,
    "tradem": 6884,
    "trademark": 6885,
    "opinions": 6886,
    "torn": 6887,
    "quoted": 6888,
    "praise": 6889,
    "44b": 6890,
    "temperature": 6891,
    "sculpted": 6892,
    "budd": 6893,
    "epic": 6894,
    "konkan": 6895,
    "ishvar": 6896,
    "ishvara": 6897,
    "considerable": 6898,
    "61": 6899,
    "sid": 6900,
    "garuda": 6901,
    "discern": 6902,
    "closest": 6903,
    "legs": 6904,
    "andal": 6905,
    "elbow": 6906,
    "terror": 6907,
    "consolidation": 6908,
    "programs": 6909,
    "vary": 6910,
    "finity": 6911,
    "newsted": 6912,
    "checked": 6913,
    "credits": 6914,
    "luke": 6915,
    "trick": 6916,
    "alien": 6917,
    "tong": 6918,
    "tongue": 6919,
    "anne": 6920,
    "peaking": 6921,
    "advent": 6922,
    "facade": 6923,
    "sym": 6924,
    "immigration": 6925,
    "disturb": 6926,
    "disturbance": 6927,
    "rier": 6928,
    "southwest": 6929,
    "harbor": 6930,
    "surge": 6931,
    "sailors": 6932,
    "devast": 6933,
    "metropolitan": 6934,
    "targeted": 6935,
    "grapher": 6936,
    "hurst": 6937,
    "reed": 6938,
    "uncertain": 6939,
    "appeals": 6940,
    "constitution": 6941,
    "rocke": 6942,
    "rockefell": 6943,
    "rockefeller": 6944,
    "ctorate": 6945,
    "electoral": 6946,
    "kevin": 6947,
    "jeffrey": 6948,
    "sec": 6949,
    "securing": 6950,
    "steals": 6951,
    "ruth": 6952,
    "nike": 6953,
    "bobcats": 6954,
    "bounds": 6955,
    "blocks": 6956,
    "pistons": 6957,
    "beating": 6958,
    "averages": 6959,
    "nielsen": 6960,
    "malone": 6961,
    "defenders": 6962,
    "snow": 6963,
    "brand": 6964,
    "juan": 6965,
    "icts": 6966,
    "ukrain": 6967,
    "ukrainian": 6968,
    "libraries": 6969,
    "emphasis": 6970,
    "patri": 6971,
    "congreg": 6972,
    "ologies": 6973,
    "marian": 6974,
    "pakistani": 6975,
    "interned": 6976,
    "wilhel": 6977,
    "wilhelm": 6978,
    "battlecruiser": 6979,
    "convoy": 6980,
    "earthen": 6981,
    "timber": 6982,
    "termed": 6983,
    "markers": 6984,
    "elsewhere": 6985,
    "belonging": 6986,
    "values": 6987,
    "tooth": 6988,
    "bennett": 6989,
    "sevast": 6990,
    "sevastop": 6991,
    "sevastopol": 6992,
    "routes": 6993,
    "ester": 6994,
    "mtv": 6995,
    "mcent": 6996,
    "mcentire": 6997,
    "weird": 6998,
    "merry": 6999,
    "cyclone": 7000,
    "outages": 7001,
    "amj": 7002,
    "amjad": 7003,
    "extremely": 7004,
    "3d": 7005,
    "soor": 7006,
    "soorma": 7007,
    "sundance": 7008,
    "mobile": 7009,
    "rovers": 7010,
    "shin": 7011,
    "suvar": 7012,
    "suvarn": 7013,
    "suvarnab": 7014,
    "suvarnabhum": 7015,
    "suvarnabhumi": 7016,
    "sciences": 7017,
    "regurg": 7018,
    "liquid": 7019,
    "mahé": 7020,
    "fé": 7021,
    "félix": 7022,
    "successive": 7023,
    "carson": 7024,
    "ores": 7025,
    "joan": 7026,
    "atrox": 7027,
    "thero": 7028,
    "theropo": 7029,
    "hygroscopic": 7030,
    "locy": 7031,
    "tissue": 7032,
    "humid": 7033,
    "gle": 7034,
    "gleba": 7035,
    "populations": 7036,
    "asiatic": 7037,
    "branched": 7038,
    "stain": 7039,
    "rubber": 7040,
    "plaza": 7041,
    "chaak": 7042,
    "ballcourt": 7043,
    "upperparts": 7044,
    "vegetation": 7045,
    "mutations": 7046,
    "guang": 7047,
    "guangd": 7048,
    "guangdong": 7049,
    "gá": 7050,
    "gál": 7051,
    "gálve": 7052,
    "gálvez": 7053,
    "vard": 7054,
    "chom": 7055,
    "chomsky": 7056,
    "fusion": 7057,
    "parallel": 7058,
    "oz": 7059,
    "compat": 7060,
    "animated": 7061,
    "perspective": 7062,
    "unless": 7063,
    "learn": 7064,
    "masters": 7065,
    "attribut": 7066,
    "dangerous": 7067,
    "wish": 7068,
    "ingly": 7069,
    "mysterious": 7070,
    "hau": 7071,
    "trait": 7072,
    "shadow": 7073,
    "iance": 7074,
    "trial": 7075,
    "improvements": 7076,
    "maintaining": 7077,
    "reality": 7078,
    "divor": 7079,
    "flash": 7080,
    "bonus": 7081,
    "unpopular": 7082,
    "multi": 7083,
    "102": 7084,
    "availability": 7085,
    "volumes": 7086,
    "1840": 7087,
    "commissioning": 7088,
    "receives": 7089,
    "perce": 7090,
    "adequ": 7091,
    "adequate": 7092,
    "simple": 7093,
    "rector": 7094,
    "attor": 7095,
    "attorney": 7096,
    "delivery": 7097,
    "4th": 7098,
    "withdraw": 7099,
    "manufacture": 7100,
    "cartr": 7101,
    "idges": 7102,
    "kelly": 7103,
    "battal": 7104,
    "battalion": 7105,
    "2nd": 7106,
    "quant": 7107,
    "procured": 7108,
    "inspect": 7109,
    "converting": 7110,
    "laborers": 7111,
    "carp": 7112,
    "carpenter": 7113,
    "buck": 7114,
    "predominant": 7115,
    "1874": 7116,
    "barracks": 7117,
    "1880": 7118,
    "deployment": 7119,
    "forever": 7120,
    "demolished": 7121,
    "ieties": 7122,
    "fifty": 7123,
    "106": 7124,
    "renov": 7125,
    "decommissioned": 7126,
    "merged": 7127,
    "1895": 7128,
    "devout": 7129,
    "donated": 7130,
    "hymns": 7131,
    "walter": 7132,
    "wald": 7133,
    "belonged": 7134,
    "cook": 7135,
    "household": 7136,
    "rons": 7137,
    "pillars": 7138,
    "atmo": 7139,
    "sphere": 7140,
    "adys": 7141,
    "plants": 7142,
    "leaves": 7143,
    "trunk": 7144,
    "doub": 7145,
    "doubt": 7146,
    "rington": 7147,
    "gare": 7148,
    "restored": 7149,
    "tended": 7150,
    "scattered": 7151,
    "subjects": 7152,
    "wear": 7153,
    "charitable": 7154,
    "exhibited": 7155,
    "rhymes": 7156,
    "1800": 7157,
    "simon": 7158,
    "swan": 7159,
    "bap": 7160,
    "1962": 7161,
    "preparing": 7162,
    "1955": 7163,
    "competed": 7164,
    "naments": 7165,
    "isia": 7166,
    "charter": 7167,
    "gon": 7168,
    "diam": 7169,
    "diamond": 7170,
    "fish": 7171,
    "phylo": 7172,
    "authored": 7173,
    "elevated": 7174,
    "mole": 7175,
    "molecular": 7176,
    "och": 7177,
    "basal": 7178,
    "ender": 7179,
    "gill": 7180,
    "intact": 7181,
    "shel": 7182,
    "matur": 7183,
    "maturity": 7184,
    "eries": 7185,
    "survive": 7186,
    "gear": 7187,
    "chines": 7188,
    "chinese": 7189,
    "todd": 7190,
    "tying": 7191,
    "iating": 7192,
    "struggled": 7193,
    "hire": 7194,
    "approaching": 7195,
    "speculation": 7196,
    "disappoint": 7197,
    "dedication": 7198,
    "upset": 7199,
    "amazing": 7200,
    "stopping": 7201,
    "investigation": 7202,
    "actively": 7203,
    "options": 7204,
    "dealt": 7205,
    "personally": 7206,
    "shuto": 7207,
    "shutout": 7208,
    "victories": 7209,
    "bold": 7210,
    "schedu": 7211,
    "schedule": 7212,
    "plus": 7213,
    "hunwick": 7214,
    "versely": 7215,
    "endar": 7216,
    "gregory": 7217,
    "xiii": 7218,
    "stages": 7219,
    "progressive": 7220,
    "astronomical": 7221,
    "courty": 7222,
    "instrumentation": 7223,
    "falling": 7224,
    "marble": 7225,
    "17th": 7226,
    "18th": 7227,
    "meteorological": 7228,
    "strateg": 7229,
    "strategic": 7230,
    "continuous": 7231,
    "paris": 7232,
    "terrace": 7233,
    "83": 7234,
    "modif": 7235,
    "hills": 7236,
    "session": 7237,
    "garnered": 7238,
    "keyboards": 7239,
    "rhythm": 7240,
    "cd": 7241,
    "connect": 7242,
    "memorable": 7243,
    "chorus": 7244,
    "bridgeport": 7245,
    "intersection": 7246,
    "sixteen": 7247,
    "crosses": 7248,
    "rocks": 7249,
    "calculated": 7250,
    "casemate": 7251,
    "deployed": 7252,
    "1865": 7253,
    "reserve": 7254,
    "1869": 7255,
    "glasgo": 7256,
    "glasgow": 7257,
    "scotland": 7258,
    "generated": 7259,
    "stroke": 7260,
    "impossible": 7261,
    "financed": 7262,
    "pyram": 7263,
    "pyramid": 7264,
    "banded": 7265,
    "weighed": 7266,
    "steel": 7267,
    "virtually": 7268,
    "ilation": 7269,
    "intense": 7270,
    "flagship": 7271,
    "augment": 7272,
    "augmented": 7273,
    "sortie": 7274,
    "landed": 7275,
    "representatives": 7276,
    "lawyer": 7277,
    "trium": 7278,
    "triumph": 7279,
    "orous": 7280,
    "languages": 7281,
    "chop": 7282,
    "chopra": 7283,
    "ballo": 7284,
    "filmmaker": 7285,
    "realise": 7286,
    "myself": 7287,
    "mutual": 7288,
    "commissioner": 7289,
    "zo": 7290,
    "advoc": 7291,
    "ceremonies": 7292,
    "contr": 7293,
    "forbes": 7294,
    "sabres": 7295,
    "supplement": 7296,
    "dealership": 7297,
    "brian": 7298,
    "sured": 7299,
    "athletic": 7300,
    "superior": 7301,
    "needs": 7302,
    "illness": 7303,
    "scan": 7304,
    "tumor": 7305,
    "promoting": 7306,
    "1903": 7307,
    "flotill": 7308,
    "goe": 7309,
    "mediter": 7310,
    "mediterranean": 7311,
    "combat": 7312,
    "catt": 7313,
    "breakout": 7314,
    "succeeded": 7315,
    "heavier": 7316,
    "promised": 7317,
    "scrap": 7318,
    "worshipped": 7319,
    "phenom": 7320,
    "phenomena": 7321,
    "solar": 7322,
    "recognize": 7323,
    "vague": 7324,
    "egypto": 7325,
    "etymo": 7326,
    "personified": 7327,
    "predyn": 7328,
    "predynastic": 7329,
    "icono": 7330,
    "fried": 7331,
    "hypo": 7332,
    "distinguish": 7333,
    "subordin": 7334,
    "nub": 7335,
    "absorbed": 7336,
    "cults": 7337,
    "understood": 7338,
    "aken": 7339,
    "traditions": 7340,
    "midst": 7341,
    "atum": 7342,
    "prominently": 7343,
    "cosmos": 7344,
    "omn": 7345,
    "duat": 7346,
    "throne": 7347,
    "centered": 7348,
    "keeping": 7349,
    "adopt": 7350,
    "inhabit": 7351,
    "manifestations": 7352,
    "clothes": 7353,
    "vul": 7354,
    "syncret": 7355,
    "acknow": 7356,
    "ceased": 7357,
    "totally": 7358,
    "complicated": 7359,
    "eri": 7360,
    "suit": 7361,
    "rection": 7362,
    "disagree": 7363,
    "presentation": 7364,
    "exception": 7365,
    "peo": 7366,
    "peoples": 7367,
    "inno": 7368,
    "angr": 7369,
    "angry": 7370,
    "gaining": 7371,
    "festivals": 7372,
    "encouraged": 7373,
    "crops": 7374,
    "answer": 7375,
    "orse": 7376,
    "rubin": 7377,
    "recordings": 7378,
    "usal": 7379,
    "reviewer": 7380,
    "dave": 7381,
    "lombardo": 7382,
    "rible": 7383,
    "larry": 7384,
    "allmusic": 7385,
    "inherent": 7386,
    "hear": 7387,
    "rolling": 7388,
    "sounds": 7389,
    "tribute": 7390,
    "hell": 7391,
    "orn": 7392,
    "theory": 7393,
    "overt": 7394,
    "warfare": 7395,
    "certifications": 7396,
    "remun": 7397,
    "remuner": 7398,
    "piston": 7399,
    "contribution": 7400,
    "flown": 7401,
    "helicopters": 7402,
    "strips": 7403,
    "cous": 7404,
    "regulated": 7405,
    "patro": 7406,
    "advertisement": 7407,
    "moth": 7408,
    "1956": 7409,
    "airline": 7410,
    "employees": 7411,
    "characterised": 7412,
    "professionally": 7413,
    "trends": 7414,
    "inson": 7415,
    "propeller": 7416,
    "malle": 7417,
    "hamp": 7418,
    "hampshire": 7419,
    "valent": 7420,
    "reviewed": 7421,
    "lifted": 7422,
    "ribute": 7423,
    "formerly": 7424,
    "fatal": 7425,
    "mixing": 7426,
    "errors": 7427,
    "hundreds": 7428,
    "spots": 7429,
    "increases": 7430,
    "referring": 7431,
    "factor": 7432,
    "dropping": 7433,
    "dreadnough": 7434,
    "dreadnoughts": 7435,
    "dock": 7436,
    "hungary": 7437,
    "85": 7438,
    "demonstration": 7439,
    "monten": 7440,
    "montene": 7441,
    "siege": 7442,
    "enna": 7443,
    "reduce": 7444,
    "yugo": 7445,
    "yugoslav": 7446,
    "fled": 7447,
    "illes": 7448,
    "dwar": 7449,
    "dwarf": 7450,
    "iza": 7451,
    "hein": 7452,
    "synonym": 7453,
    "elli": 7454,
    "microsco": 7455,
    "genera": 7456,
    "rhiz": 7457,
    "hyph": 7458,
    "hyphae": 7459,
    "burning": 7460,
    "spor": 7461,
    "commerce": 7462,
    "circulate": 7463,
    "jewelry": 7464,
    "hamil": 7465,
    "hamilton": 7466,
    "1836": 7467,
    "conven": 7468,
    "renewed": 7469,
    "calls": 7470,
    "senator": 7471,
    "repeatedly": 7472,
    "minimal": 7473,
    "premis": 7474,
    "premises": 7475,
    "reverse": 7476,
    "orle": 7477,
    "orleans": 7478,
    "detailed": 7479,
    "abol": 7480,
    "ornament": 7481,
    "depos": 7482,
    "ene": 7483,
    "variants": 7484,
    "substitut": 7485,
    "substituted": 7486,
    "phos": 7487,
    "phosphor": 7488,
    "phosphorus": 7489,
    "profile": 7490,
    "products": 7491,
    "atile": 7492,
    "labelled": 7493,
    "spur": 7494,
    "presidential": 7495,
    "liman": 7496,
    "limantour": 7497,
    "exile": 7498,
    "imprison": 7499,
    "agr": 7500,
    "agrarian": 7501,
    "morelos": 7502,
    "lift": 7503,
    "killing": 7504,
    "panic": 7505,
    "bels": 7506,
    "reconciliation": 7507,
    "ivo": 7508,
    "secut": 7509,
    "recalls": 7510,
    "absol": 7511,
    "absolute": 7512,
    "junction": 7513,
    "cruel": 7514,
    "infe": 7515,
    "guards": 7516,
    "literary": 7517,
    "esque": 7518,
    "conquest": 7519,
    "reflected": 7520,
    "compre": 7521,
    "compreh": 7522,
    "pressive": 7523,
    "sad": 7524,
    "miller": 7525,
    "earning": 7526,
    "ridge": 7527,
    "passen": 7528,
    "passenger": 7529,
    "nickname": 7530,
    "keith": 7531,
    "kook": 7532,
    "kookab": 7533,
    "kookabur": 7534,
    "kookaburra": 7535,
    "lester": 7536,
    "desert": 7537,
    "kilometres": 7538,
    "clou": 7539,
    "springs": 7540,
    "leap": 7541,
    "keen": 7542,
    "regularly": 7543,
    "tina": 7544,
    "comedian": 7545,
    "schmid": 7546,
    "schmidt": 7547,
    "experiences": 7548,
    "graphical": 7549,
    "immigrants": 7550,
    "column": 7551,
    "approached": 7552,
    "blow": 7553,
    "okes": 7554,
    "dennis": 7555,
    "timeslot": 7556,
    "premiered": 7557,
    "meadow": 7558,
    "feelings": 7559,
    "strange": 7560,
    "medie": 7561,
    "medieval": 7562,
    "deprecating": 7563,
    "pian": 7564,
    "ghar": 7565,
    "gharap": 7566,
    "gharapuri": 7567,
    "rises": 7568,
    "stup": 7569,
    "stupa": 7570,
    "clu": 7571,
    "clust": 7572,
    "chal": 7573,
    "maury": 7574,
    "mauryas": 7575,
    "trak": 7576,
    "aka": 7577,
    "kne": 7578,
    "attendant": 7579,
    "arti": 7580,
    "attendants": 7581,
    "itely": 7582,
    "discouraged": 7583,
    "ambient": 7584,
    "noises": 7585,
    "infinity": 7586,
    "hunting": 7587,
    "somebody": 7588,
    "phone": 7589,
    "millenn": 7590,
    "entitled": 7591,
    "mainstream": 7592,
    "prolific": 7593,
    "biome": 7594,
    "biomech": 7595,
    "varied": 7596,
    "arrange": 7597,
    "physic": 7598,
    "driving": 7599,
    "cement": 7600,
    "1806": 7601,
    "proto": 7602,
    "motifs": 7603,
    "demolition": 7604,
    "communist": 7605,
    "1977": 7606,
    "funded": 7607,
    "barrier": 7608,
    "gusts": 7609,
    "washed": 7610,
    "rent": 7611,
    "devastated": 7612,
    "fitwatch": 7613,
    "protesters": 7614,
    "rout": 7615,
    "leop": 7616,
    "exact": 7617,
    "inda": 7618,
    "suspected": 7619,
    "complaint": 7620,
    "violated": 7621,
    "unconstitutional": 7622,
    "filed": 7623,
    "politicians": 7624,
    "athletes": 7625,
    "rebounds": 7626,
    "jump": 7627,
    "rpg": 7628,
    "bowi": 7629,
    "bowie": 7630,
    "recovered": 7631,
    "apg": 7632,
    "establishing": 7633,
    "golf": 7634,
    "brad": 7635,
    "sentenced": 7636,
    "dominated": 7637,
    "1969": 7638,
    "clut": 7639,
    "stomach": 7640,
    "fewest": 7641,
    "openly": 7642,
    "crowd": 7643,
    "seasonal": 7644,
    "illino": 7645,
    "illinois": 7646,
    "wealthy": 7647,
    "survival": 7648,
    "partition": 7649,
    "hans": 7650,
    "professors": 7651,
    "forbid": 7652,
    "reading": 7653,
    "scholarly": 7654,
    "illegal": 7655,
    "ghet": 7656,
    "ghetto": 7657,
    "ghettos": 7658,
    "symph": 7659,
    "stalin": 7660,
    "censor": 7661,
    "kazimierz": 7662,
    "venues": 7663,
    "districts": 7664,
    "posters": 7665,
    "publisher": 7666,
    "ballistic": 7667,
    "missile": 7668,
    "igen": 7669,
    "jut": 7670,
    "jutland": 7671,
    "scap": 7672,
    "scapa": 7673,
    "reuter": 7674,
    "scouting": 7675,
    "speculated": 7676,
    "ahead": 7677,
    "penins": 7678,
    "peninsula": 7679,
    "chambered": 7680,
    "addington": 7681,
    "chestnuts": 7682,
    "kerb": 7683,
    "potentially": 7684,
    "folklo": 7685,
    "folklore": 7686,
    "isles": 7687,
    "mesolithic": 7688,
    "stuart": 7689,
    "emphasised": 7690,
    "sars": 7691,
    "sarsens": 7692,
    "fallen": 7693,
    "examined": 7694,
    "diagnostic": 7695,
    "anglo": 7696,
    "wright": 7697,
    "payne": 7698,
    "pitt": 7699,
    "excavate": 7700,
    "iy": 7701,
    "agan": 7702,
    "lanes": 7703,
    "wickford": 7704,
    "crossing": 7705,
    "403": 7706,
    "onset": 7707,
    "402": 7708,
    "ridot": 7709,
    "please": 7710,
    "beats": 7711,
    "sequence": 7712,
    "pm": 7713,
    "caution": 7714,
    "cautionary": 7715,
    "rudolph": 7716,
    "dys": 7717,
    "melody": 7718,
    "airplay": 7719,
    "bestselling": 7720,
    "retail": 7721,
    "households": 7722,
    "customers": 7723,
    "filmfare": 7724,
    "ilised": 7725,
    "ramgar": 7726,
    "ramgarh": 7727,
    "radha": 7728,
    "villain": 7729,
    "striker": 7730,
    "devon": 7731,
    "hampton": 7732,
    "chelten": 7733,
    "cheltenham": 7734,
    "exer": 7735,
    "exerc": 7736,
    "unnamed": 7737,
    "bleeding": 7738,
    "terminal": 7739,
    "quot": 7740,
    "guy": 7741,
    "almin": 7742,
    "almina": 7743,
    "mangalore": 7744,
    "ré": 7745,
    "résol": 7746,
    "résolue": 7747,
    "nelly": 7748,
    "busqu": 7749,
    "busqué": 7750,
    "igual": 7751,
    "brob": 7752,
    "brobbel": 7753,
    "combe": 7754,
    "antimon": 7755,
    "µg": 7756,
    "romano": 7757,
    "maidan": 7758,
    "discipline": 7759,
    "methodologies": 7760,
    "graduate": 7761,
    "examining": 7762,
    "myres": 7763,
    "travelled": 7764,
    "artefacts": 7765,
    "leban": 7766,
    "settlements": 7767,
    "dino": 7768,
    "dinosa": 7769,
    "dinosaur": 7770,
    "vertebra": 7771,
    "vertebrae": 7772,
    "jimmad": 7773,
    "jimmadsen": 7774,
    "jimmadseni": 7775,
    "asiaticus": 7776,
    "odoratus": 7777,
    "worker": 7778,
    "myceli": 7779,
    "idium": 7780,
    "μm": 7781,
    "sher": 7782,
    "drunk": 7783,
    "oscar": 7784,
    "cheese": 7785,
    "buc": 7786,
    "mlb": 7787,
    "pitching": 7788,
    "innings": 7789,
    "gers": 7790,
    "rumour": 7791,
    "rumours": 7792,
    "congregation": 7793,
    "dioc": 7794,
    "trey": 7795,
    "symons": 7796,
    "stuc": 7797,
    "stucco": 7798,
    "aaknal": 7799,
    "vass": 7800,
    "polis": 7801,
    "eggs": 7802,
    "grain": 7803,
    "mowing": 7804,
    "syndro": 7805,
    "syndrome": 7806,
    "pir": 7807,
    "promye": 7808,
    "promyelocy": 7809,
    "promyelocytic": 7810,
    "apl": 7811,
    "xin": 7812,
    "xinhua": 7813,
    "bolivar": 7814,
    "carnival": 7815,
    "sealy": 7816,
    "artwalk": 7817,
    "chip": 7818,
    "trucks": 7819,
    "fm": 7820,
    "ique": 7821,
    "princeton": 7822,
    "senj": 7823,
    "senjō": 7824,
    "sega": 7825,
    "predecessors": 7826,
    "gallia": 7827,
    "raven": 7828,
    "sakim": 7829,
    "sakimoto": 7830,
    "compatible": 7831,
    "panels": 7832,
    "portra": 7833,
    "relating": 7834,
    "acquire": 7835,
    "kurt": 7836,
    "engineers": 7837,
    "switch": 7838,
    "changing": 7839,
    "offenders": 7840,
    "militia": 7841,
    "riel": 7842,
    "lose": 7843,
    "desper": 7844,
    "escorted": 7845,
    "wreck": 7846,
    "asking": 7847,
    "wanting": 7848,
    "sequel": 7849,
    "error": 7850,
    "darker": 7851,
    "upgrade": 7852,
    "adju": 7853,
    "adjusted": 7854,
    "arriving": 7855,
    "publicity": 7856,
    "lc": 7857,
    "patch": 7858,
    "exclusive": 7859,
    "pleased": 7860,
    "limitations": 7861,
    "positively": 7862,
    "hindman": 7863,
    "removal": 7864,
    "seemed": 7865,
    "occasional": 7866,
    "sover": 7867,
    "vals": 7868,
    "realistic": 7869,
    "vehicles": 7870,
    "bloom": 7871,
    "agon": 7872,
    "1894": 7873,
    "camden": 7874,
    "perceived": 7875,
    "dang": 7876,
    "frontier": 7877,
    "walker": 7878,
    "ette": 7879,
    "izon": 7880,
    "sixty": 7881,
    "convention": 7882,
    "telegraph": 7883,
    "memp": 7884,
    "memphis": 7885,
    "message": 7886,
    "quarters": 7887,
    "garrison": 7888,
    "munitions": 7889,
    "visions": 7890,
    "cris": 7891,
    "crisis": 7892,
    "cartridges": 7893,
    "caps": 7894,
    "bronze": 7895,
    "1822": 7896,
    "flintlock": 7897,
    "missis": 7898,
    "mississip": 7899,
    "mississippi": 7900,
    "6th": 7901,
    "12th": 7902,
    "arkadelphia": 7903,
    "gathered": 7904,
    "donation": 7905,
    "impressed": 7906,
    "crucial": 7907,
    "murphy": 7908,
    "inspe": 7909,
    "summary": 7910,
    "pounder": 7911,
    "indicating": 7912,
    "pace": 7913,
    "1864": 7914,
    "floors": 7915,
    "stair": 7916,
    "devoted": 7917,
    "membership": 7918,
    "exhibit": 7919,
    "deterior": 7920,
    "depression": 7921,
    "headquartered": 7922,
    "foster": 7923,
    "exists": 7924,
    "landmark": 7925,
    "renovated": 7926,
    "pitlake": 7927,
    "equally": 7928,
    "greenaway": 7929,
    "instinct": 7930,
    "theories": 7931,
    "posth": 7932,
    "posthum": 7933,
    "posthumously": 7934,
    "seed": 7935,
    "nur": 7936,
    "1940s": 7937,
    "raph": 7938,
    "raphael": 7939,
    "tuck": 7940,
    "supervis": 7941,
    "det": 7942,
    "churches": 7943,
    "parishion": 7944,
    "parishioners": 7945,
    "1958": 7946,
    "relatives": 7947,
    "gardens": 7948,
    "costu": 7949,
    "costume": 7950,
    "worthing": 7951,
    "ashes": 7952,
    "interesting": 7953,
    "natur": 7954,
    "naturally": 7955,
    "sponsored": 7956,
    "seaside": 7957,
    "critically": 7958,
    "rescu": 7959,
    "pover": 7960,
    "poverty": 7961,
    "outlined": 7962,
    "exhibition": 7963,
    "1922": 7964,
    "banner": 7965,
    "shield": 7966,
    "andrews": 7967,
    "popularity": 7968,
    "amongst": 7969,
    "neo": 7970,
    "soft": 7971,
    "oral": 7972,
    "arous": 7973,
    "lacks": 7974,
    "atively": 7975,
    "diver": 7976,
    "furthermore": 7977,
    "rounded": 7978,
    "pap": 7979,
    "pairs": 7980,
    "fairly": 7981,
    "spines": 7982,
    "shorter": 7983,
    "aced": 7984,
    "grows": 7985,
    "inhab": 7986,
    "extends": 7987,
    "guine": 7988,
    "guinea": 7989,
    "tends": 7990,
    "diet": 7991,
    "arded": 7992,
    "65": 7993,
    "acquis": 7994,
    "wisnie": 7995,
    "wisniewski": 7996,
    "canadi": 7997,
    "canadiens": 7998,
    "defenseman": 7999
  },
  "merges": [
    [
      "t",
      "h"
    ],
    [
      "i",
      "n"
    ],
    [
      "th",
      "e"
    ],
    [
      "a",
      "n"
    ],
    [
      "e",
      "r"
    ],
    [
      "o",
      "n"
    ],
    [
      "e",
      "d"
    ],
    [
      "r",
      "e"
    ],
    [
      "u",
      "n"
    ],
    [
      "a",
      "t"
    ],
    [
      "o",
      "r"
    ],
    [
      "s",
      "t"
    ],
    [
      "a",
      "l"
    ],
    [
      "e",
      "n"
    ],
    [
      "a",
      "r"
    ],
    [
      "a",
      "s"
    ],
    [
      "o",
      "f"
    ],
    [
      "an",
      "d"
    ],
    [
      "un",
      "k"
    ],
    [
      "i",
      "s"
    ],
    [
      "i",
      "t"
    ],
    [
      "in",
      "g"
    ],
    [
      "t",
      "o"
    ],
    [
      "e",
      "s"
    ],
    [
      "i",
      "c"
    ],
    [
      "r",
      "o"
    ],
    [
      "i",
      "on"
    ],
    [
      "l",
      "e"
    ],
    [
      "c",
      "h"
    ],
    [
      "s",
      "e"
    ],
    [
      "o",
      "u"
    ],
    [
      "en",
      "t"
    ],
    [
      "i",
      "l"
    ],
    [
      "a",
      "d"
    ],
    [
      "a",
      "m"
    ],
    [
      "b",
      "e"
    ],
    [
      "c",
      "o"
    ],
    [
      "f",
      "or"
    ],
    [
      "a",
      "c"
    ],
    [
      "h",
      "e"
    ],
    [
      "w",
      "as"
    ],
    [
      "l",
      "y"
    ],
    [
      "d",
      "e"
    ],
    [
      "l",
      "o"
    ],
    [
      "v",
      "e"
    ],
    [
      "u",
      "r"
    ],
    [
      "i",
      "r"
    ],
    [
      "i",
      "m"
    ],
    [
      "w",
      "i"
    ],
    [
      "w",
      "h"
    ],
    [
      "o",
      "l"
    ],
    [
      "wi",
      "th"
    ],
    [
      "i",
      "g"
    ],
    [
      "at",
      "ion"
    ],
    [
      "a",
      "y"
    ],
    [
      "v",
      "er"
    ],
    [
      "c",
      "on"
    ],
    [
      "th",
      "at"
    ],
    [
      "t",
      "er"
    ],
    [
      "c",
      "e"
    ],
    [
      "a",
      "g"
    ],
    [
      "t",
      "e"
    ],
    [
      "b",
      "y"
    ],
    [
      "c",
      "t"
    ],
    [
      "n",
      "o"
    ],
    [
      "u",
      "l"
    ],
    [
      "m",
      "e"
    ],
    [
      "u",
      "s"
    ],
    [
      "i",
      "d"
    ],
    [
      "r",
      "a"
    ],
    [
      "s",
      "o"
    ],
    [
      "i",
      "st"
    ],
    [
      "u",
      "m"
    ],
    [
      "m",
      "o"
    ],
    [
      "s",
      "h"
    ],
    [
      "1",
      "9"
    ],
    [
      "p",
      "e"
    ],
    [
      "p",
      "o"
    ],
    [
      "e",
      "l"
    ],
    [
      "p",
      "l"
    ],
    [
      "w",
      "er"
    ],
    [
      "p",
      "ro"
    ],
    [
      "re",
      "s"
    ],
    [
      "al",
      "l"
    ],
    [
      "0",
      "0"
    ],
    [
      "co",
      "m"
    ],
    [
      "n",
      "e"
    ],
    [
      "h",
      "is"
    ],
    [
      "ro",
      "m"
    ],
    [
      "p",
      "er"
    ],
    [
      "s",
      "u"
    ],
    [
      "a",
      "b"
    ],
    [
      "r",
      "i"
    ],
    [
      "a",
      "re"
    ],
    [
      "u",
      "t"
    ],
    [
      "un",
      "d"
    ],
    [
      "d",
      "i"
    ],
    [
      "f",
      "rom"
    ],
    [
      "a",
      "in"
    ],
    [
      "a",
      "p"
    ],
    [
      "t",
      "s"
    ],
    [
      "the",
      "r"
    ],
    [
      "wer",
      "e"
    ],
    [
      "f",
      "e"
    ],
    [
      "c",
      "l"
    ],
    [
      "k",
      "e"
    ],
    [
      "i",
      "es"
    ],
    [
      "at",
      "e"
    ],
    [
      "b",
      "er"
    ],
    [
      "g",
      "e"
    ],
    [
      "w",
      "e"
    ],
    [
      "o",
      "d"
    ],
    [
      "or",
      "d"
    ],
    [
      "ic",
      "h"
    ],
    [
      "t",
      "r"
    ],
    [
      "e",
      "x"
    ],
    [
      "l",
      "i"
    ],
    [
      "ar",
      "t"
    ],
    [
      "m",
      "an"
    ],
    [
      "ig",
      "h"
    ],
    [
      "is",
      "h"
    ],
    [
      "at",
      "ed"
    ],
    [
      "en",
      "d"
    ],
    [
      "it",
      "y"
    ],
    [
      "w",
      "n"
    ],
    [
      "g",
      "h"
    ],
    [
      "t",
      "ed"
    ],
    [
      "m",
      "ent"
    ],
    [
      "er",
      "s"
    ],
    [
      "p",
      "or"
    ],
    [
      "l",
      "d"
    ],
    [
      "on",
      "e"
    ],
    [
      "am",
      "e"
    ],
    [
      "an",
      "t"
    ],
    [
      "e",
      "ar"
    ],
    [
      "b",
      "o"
    ],
    [
      "a",
      "v"
    ],
    [
      "a",
      "f"
    ],
    [
      "wh",
      "ich"
    ],
    [
      "h",
      "ad"
    ],
    [
      "on",
      "g"
    ],
    [
      "q",
      "u"
    ],
    [
      "h",
      "o"
    ],
    [
      "h",
      "er"
    ],
    [
      "ar",
      "d"
    ],
    [
      "u",
      "p"
    ],
    [
      "r",
      "it"
    ],
    [
      "il",
      "l"
    ],
    [
      "i",
      "v"
    ],
    [
      "a",
      "st"
    ],
    [
      "es",
      "s"
    ],
    [
      "i",
      "ve"
    ],
    [
      "ac",
      "t"
    ],
    [
      "ou",
      "r"
    ],
    [
      "ou",
      "t"
    ],
    [
      "w",
      "o"
    ],
    [
      "a",
      "u"
    ],
    [
      "i",
      "al"
    ],
    [
      "i",
      "p"
    ],
    [
      "i",
      "a"
    ],
    [
      "st",
      "r"
    ],
    [
      "w",
      "or"
    ],
    [
      "2",
      "0"
    ],
    [
      "i",
      "e"
    ],
    [
      "s",
      "he"
    ],
    [
      "as",
      "s"
    ],
    [
      "o",
      "p"
    ],
    [
      "f",
      "o"
    ],
    [
      "it",
      "s"
    ],
    [
      "t",
      "im"
    ],
    [
      "a",
      "ve"
    ],
    [
      "b",
      "l"
    ],
    [
      "ar",
      "y"
    ],
    [
      "d",
      "u"
    ],
    [
      "2",
      "00"
    ],
    [
      "b",
      "ut"
    ],
    [
      "no",
      "t"
    ],
    [
      "i",
      "an"
    ],
    [
      "in",
      "e"
    ],
    [
      "d",
      "o"
    ],
    [
      "th",
      "is"
    ],
    [
      "al",
      "so"
    ],
    [
      "a",
      "ir"
    ],
    [
      "ic",
      "al"
    ],
    [
      "h",
      "as"
    ],
    [
      "ac",
      "k"
    ],
    [
      "f",
      "ir"
    ],
    [
      "e",
      "m"
    ],
    [
      "i",
      "f"
    ],
    [
      "a",
      "k"
    ],
    [
      "of",
      "f"
    ],
    [
      "g",
      "o"
    ],
    [
      "af",
      "ter"
    ],
    [
      "the",
      "ir"
    ],
    [
      "u",
      "d"
    ],
    [
      "pl",
      "ay"
    ],
    [
      "o",
      "ther"
    ],
    [
      "for",
      "m"
    ],
    [
      "ne",
      "w"
    ],
    [
      "igh",
      "t"
    ],
    [
      "por",
      "t"
    ],
    [
      "wh",
      "o"
    ],
    [
      "ig",
      "n"
    ],
    [
      "m",
      "in"
    ],
    [
      "re",
      "c"
    ],
    [
      "a",
      "ch"
    ],
    [
      "p",
      "res"
    ],
    [
      "m",
      "ar"
    ],
    [
      "f",
      "in"
    ],
    [
      "t",
      "wo"
    ],
    [
      "ou",
      "s"
    ],
    [
      "re",
      "e"
    ],
    [
      "20",
      "1"
    ],
    [
      "s",
      "er"
    ],
    [
      "fir",
      "st"
    ],
    [
      "s",
      "c"
    ],
    [
      "p",
      "r"
    ],
    [
      "u",
      "re"
    ],
    [
      "1",
      "8"
    ],
    [
      "ag",
      "e"
    ],
    [
      "lo",
      "w"
    ],
    [
      "it",
      "ion"
    ],
    [
      "at",
      "er"
    ],
    [
      "com",
      "m"
    ],
    [
      "a",
      "w"
    ],
    [
      "i",
      "de"
    ],
    [
      "p",
      "ol"
    ],
    [
      "d",
      "es"
    ],
    [
      "m",
      "ber"
    ],
    [
      "l",
      "l"
    ],
    [
      "r",
      "an"
    ],
    [
      "ou",
      "ld"
    ],
    [
      "t",
      "y"
    ],
    [
      "p",
      "h"
    ],
    [
      "g",
      "ro"
    ],
    [
      "y",
      "ear"
    ],
    [
      "g",
      "u"
    ],
    [
      "p",
      "t"
    ],
    [
      "p",
      "art"
    ],
    [
      "ct",
      "ion"
    ],
    [
      "the",
      "y"
    ],
    [
      "f",
      "er"
    ],
    [
      "or",
      "y"
    ],
    [
      "sh",
      "ip"
    ],
    [
      "h",
      "ave"
    ],
    [
      "ur",
      "ing"
    ],
    [
      "con",
      "t"
    ],
    [
      "e",
      "v"
    ],
    [
      "s",
      "pe"
    ],
    [
      "ro",
      "u"
    ],
    [
      "c",
      "re"
    ],
    [
      "ou",
      "gh"
    ],
    [
      "be",
      "en"
    ],
    [
      "c",
      "k"
    ],
    [
      "l",
      "and"
    ],
    [
      "as",
      "on"
    ],
    [
      "al",
      "ly"
    ],
    [
      "p",
      "re"
    ],
    [
      "e",
      "st"
    ],
    [
      "s",
      "on"
    ],
    [
      "it",
      "e"
    ],
    [
      "po",
      "s"
    ],
    [
      "o",
      "ver"
    ],
    [
      "an",
      "s"
    ],
    [
      "c",
      "ent"
    ],
    [
      "u",
      "e"
    ],
    [
      "ation",
      "s"
    ],
    [
      "o",
      "k"
    ],
    [
      "n",
      "or"
    ],
    [
      "m",
      "a"
    ],
    [
      "m",
      "on"
    ],
    [
      "b",
      "r"
    ],
    [
      "ol",
      "d"
    ],
    [
      "tim",
      "e"
    ],
    [
      "en",
      "ce"
    ],
    [
      "d",
      "is"
    ],
    [
      "f",
      "il"
    ],
    [
      "und",
      "er"
    ],
    [
      "it",
      "ed"
    ],
    [
      "sh",
      "o"
    ],
    [
      "d",
      "uring"
    ],
    [
      "f",
      "t"
    ],
    [
      "ar",
      "ch"
    ],
    [
      "p",
      "ar"
    ],
    [
      "in",
      "ter"
    ],
    [
      "wor",
      "k"
    ],
    [
      "at",
      "t"
    ],
    [
      "mo",
      "st"
    ],
    [
      "v",
      "ed"
    ],
    [
      "it",
      "ies"
    ],
    [
      "t",
      "ur"
    ],
    [
      "ad",
      "e"
    ],
    [
      "mo",
      "re"
    ],
    [
      "re",
      "g"
    ],
    [
      "m",
      "ain"
    ],
    [
      "i",
      "le"
    ],
    [
      "se",
      "ason"
    ],
    [
      "g",
      "en"
    ],
    [
      "s",
      "p"
    ],
    [
      "s",
      "a"
    ],
    [
      "in",
      "cl"
    ],
    [
      "w",
      "ar"
    ],
    [
      "j",
      "o"
    ],
    [
      "rec",
      "ord"
    ],
    [
      "fil",
      "m"
    ],
    [
      "c",
      "an"
    ],
    [
      "th",
      "an"
    ],
    [
      "l",
      "ar"
    ],
    [
      "th",
      "ough"
    ],
    [
      "g",
      "od"
    ],
    [
      "as",
      "ed"
    ],
    [
      "as",
      "e"
    ],
    [
      "r",
      "ed"
    ],
    [
      "p",
      "u"
    ],
    [
      "t",
      "en"
    ],
    [
      "al",
      "b"
    ],
    [
      "j",
      "e"
    ],
    [
      "ic",
      "e"
    ],
    [
      "so",
      "me"
    ],
    [
      "o",
      "c"
    ],
    [
      "st",
      "on"
    ],
    [
      "c",
      "ed"
    ],
    [
      "lo",
      "g"
    ],
    [
      "alb",
      "um"
    ],
    [
      "an",
      "ce"
    ],
    [
      "m",
      "y"
    ],
    [
      "f",
      "l"
    ],
    [
      "ab",
      "le"
    ],
    [
      "i",
      "z"
    ],
    [
      "st",
      "e"
    ],
    [
      "pu",
      "bl"
    ],
    [
      "rou",
      "gh"
    ],
    [
      "ch",
      "ar"
    ],
    [
      "g",
      "er"
    ],
    [
      "con",
      "d"
    ],
    [
      "ac",
      "e"
    ],
    [
      "be",
      "c"
    ],
    [
      "m",
      "ay"
    ],
    [
      "o",
      "t"
    ],
    [
      "ent",
      "s"
    ],
    [
      "h",
      "im"
    ],
    [
      "b",
      "u"
    ],
    [
      "al",
      "s"
    ],
    [
      "g",
      "an"
    ],
    [
      "i",
      "ous"
    ],
    [
      "s",
      "ing"
    ],
    [
      "il",
      "d"
    ],
    [
      "in",
      "to"
    ],
    [
      "spe",
      "c"
    ],
    [
      "c",
      "es"
    ],
    [
      "p",
      "le"
    ],
    [
      "the",
      "re"
    ],
    [
      "c",
      "ity"
    ],
    [
      "str",
      "u"
    ],
    [
      "e",
      "t"
    ],
    [
      "g",
      "al"
    ],
    [
      "w",
      "in"
    ],
    [
      "us",
      "ed"
    ],
    [
      "co",
      "l"
    ],
    [
      "s",
      "ch"
    ],
    [
      "c",
      "ar"
    ],
    [
      "s",
      "y"
    ],
    [
      "at",
      "es"
    ],
    [
      "re",
      "n"
    ],
    [
      "the",
      "m"
    ],
    [
      "c",
      "ess"
    ],
    [
      "wh",
      "en"
    ],
    [
      "19",
      "9"
    ],
    [
      "b",
      "rit"
    ],
    [
      "incl",
      "ud"
    ],
    [
      "v",
      "ie"
    ],
    [
      "j",
      "ord"
    ],
    [
      "jord",
      "an"
    ],
    [
      "p",
      "ed"
    ],
    [
      "ct",
      "ed"
    ],
    [
      "ic",
      "k"
    ],
    [
      "ic",
      "t"
    ],
    [
      "h",
      "ist"
    ],
    [
      "se",
      "cond"
    ],
    [
      "te",
      "am"
    ],
    [
      "o",
      "log"
    ],
    [
      "er",
      "n"
    ],
    [
      "am",
      "es"
    ],
    [
      "ver",
      "s"
    ],
    [
      "s",
      "ou"
    ],
    [
      "w",
      "ay"
    ],
    [
      "t",
      "on"
    ],
    [
      "re",
      "l"
    ],
    [
      "i",
      "ed"
    ],
    [
      "on",
      "ly"
    ],
    [
      "er",
      "e"
    ],
    [
      "ul",
      "ar"
    ],
    [
      "f",
      "our"
    ],
    [
      "ul",
      "t"
    ],
    [
      "h",
      "igh"
    ],
    [
      "s",
      "s"
    ],
    [
      "pro",
      "du"
    ],
    [
      "man",
      "y"
    ],
    [
      "in",
      "t"
    ],
    [
      "re",
      "le"
    ],
    [
      "or",
      "s"
    ],
    [
      "th",
      "ree"
    ],
    [
      "m",
      "us"
    ],
    [
      "n",
      "um"
    ],
    [
      "ing",
      "s"
    ],
    [
      "l",
      "ater"
    ],
    [
      "el",
      "l"
    ],
    [
      "r",
      "on"
    ],
    [
      "v",
      "is"
    ],
    [
      "wh",
      "ile"
    ],
    [
      "lo",
      "c"
    ],
    [
      "co",
      "un"
    ],
    [
      "l",
      "es"
    ],
    [
      "g",
      "ame"
    ],
    [
      "fo",
      "re"
    ],
    [
      "i",
      "x"
    ],
    [
      "w",
      "he"
    ],
    [
      "m",
      "ed"
    ],
    [
      "s",
      "ur"
    ],
    [
      "l",
      "ong"
    ],
    [
      "g",
      "r"
    ],
    [
      "su",
      "b"
    ],
    [
      "ation",
      "al"
    ],
    [
      "i",
      "b"
    ],
    [
      "w",
      "ould"
    ],
    [
      "th",
      "rough"
    ],
    [
      "ish",
      "ed"
    ],
    [
      "be",
      "t"
    ],
    [
      "ic",
      "an"
    ],
    [
      "to",
      "wn"
    ],
    [
      "in",
      "di"
    ],
    [
      "ag",
      "ain"
    ],
    [
      "ion",
      "s"
    ],
    [
      "a",
      "e"
    ],
    [
      "m",
      "u"
    ],
    [
      "n",
      "ed"
    ],
    [
      "n",
      "ing"
    ],
    [
      "g",
      "re"
    ],
    [
      "il",
      "y"
    ],
    [
      "we",
      "st"
    ],
    [
      "d",
      "ay"
    ],
    [
      "num",
      "ber"
    ],
    [
      "be",
      "ing"
    ],
    [
      "r",
      "u"
    ],
    [
      "w",
      "rit"
    ],
    [
      "the",
      "se"
    ],
    [
      "m",
      "al"
    ],
    [
      "ab",
      "out"
    ],
    [
      "whe",
      "el"
    ],
    [
      "k",
      "no"
    ],
    [
      "b",
      "ar"
    ],
    [
      "wheel",
      "er"
    ],
    [
      "se",
      "l"
    ],
    [
      "c",
      "or"
    ],
    [
      "00",
      "0"
    ],
    [
      "wh",
      "ere"
    ],
    [
      "er",
      "ed"
    ],
    [
      "so",
      "c"
    ],
    [
      "f",
      "ol"
    ],
    [
      "i",
      "re"
    ],
    [
      "mus",
      "ic"
    ],
    [
      "en",
      "g"
    ],
    [
      "o",
      "m"
    ],
    [
      "te",
      "m"
    ],
    [
      "se",
      "ver"
    ],
    [
      "con",
      "s"
    ],
    [
      "li",
      "ke"
    ],
    [
      "b",
      "a"
    ],
    [
      "arch",
      "ae"
    ],
    [
      "archae",
      "olog"
    ],
    [
      "the",
      "n"
    ],
    [
      "in",
      "s"
    ],
    [
      "su",
      "ch"
    ],
    [
      "gen",
      "er"
    ],
    [
      "m",
      "ade"
    ],
    [
      "s",
      "ong"
    ],
    [
      "n",
      "a"
    ],
    [
      "c",
      "ra"
    ],
    [
      "ic",
      "o"
    ],
    [
      "o",
      "per"
    ],
    [
      "m",
      "or"
    ],
    [
      "w",
      "ell"
    ],
    [
      "ul",
      "l"
    ],
    [
      "k",
      "ing"
    ],
    [
      "b",
      "ro"
    ],
    [
      "re",
      "ct"
    ],
    [
      "bet",
      "we"
    ],
    [
      "betwe",
      "en"
    ],
    [
      "gal",
      "ve"
    ],
    [
      "de",
      "p"
    ],
    [
      "ard",
      "s"
    ],
    [
      "an",
      "y"
    ],
    [
      "n",
      "ational"
    ],
    [
      "v",
      "al"
    ],
    [
      "galve",
      "ston"
    ],
    [
      "e",
      "le"
    ],
    [
      "on",
      "y"
    ],
    [
      "brit",
      "ish"
    ],
    [
      "j",
      "u"
    ],
    [
      "l",
      "ed"
    ],
    [
      "pres",
      "ent"
    ],
    [
      "wor",
      "ld"
    ],
    [
      "am",
      "er"
    ],
    [
      "s",
      "ign"
    ],
    [
      "fol",
      "low"
    ],
    [
      "at",
      "ing"
    ],
    [
      "a",
      "th"
    ],
    [
      "bo",
      "th"
    ],
    [
      "al",
      "though"
    ],
    [
      "r",
      "y"
    ],
    [
      "c",
      "er"
    ],
    [
      "publ",
      "ic"
    ],
    [
      "des",
      "c"
    ],
    [
      "v",
      "ar"
    ],
    [
      "st",
      "ate"
    ],
    [
      "god",
      "s"
    ],
    [
      "en",
      "s"
    ],
    [
      "le",
      "ad"
    ],
    [
      "po",
      "p"
    ],
    [
      "year",
      "s"
    ],
    [
      "i",
      "i"
    ],
    [
      "or",
      "k"
    ],
    [
      "m",
      "is"
    ],
    [
      "a",
      "il"
    ],
    [
      "b",
      "ack"
    ],
    [
      "y",
      "ork"
    ],
    [
      "ser",
      "v"
    ],
    [
      "t",
      "ra"
    ],
    [
      "su",
      "p"
    ],
    [
      "nor",
      "th"
    ],
    [
      "u",
      "al"
    ],
    [
      "ad",
      "d"
    ],
    [
      "g",
      "ra"
    ],
    [
      "c",
      "are"
    ],
    [
      "me",
      "t"
    ],
    [
      "t",
      "ain"
    ],
    [
      "sever",
      "al"
    ],
    [
      "d",
      "er"
    ],
    [
      "e",
      "ast"
    ],
    [
      "ch",
      "r"
    ],
    [
      "s",
      "m"
    ],
    [
      "desc",
      "ri"
    ],
    [
      "ro",
      "ss"
    ],
    [
      "di",
      "f"
    ],
    [
      "cl",
      "ass"
    ],
    [
      "ear",
      "ly"
    ],
    [
      "t",
      "re"
    ],
    [
      "ap",
      "pe"
    ],
    [
      "un",
      "ited"
    ],
    [
      "b",
      "all"
    ],
    [
      "or",
      "ig"
    ],
    [
      "vie",
      "w"
    ],
    [
      "c",
      "all"
    ],
    [
      "e",
      "f"
    ],
    [
      "i",
      "el"
    ],
    [
      "ic",
      "s"
    ],
    [
      "o",
      "se"
    ],
    [
      "se",
      "t"
    ],
    [
      "be",
      "fore"
    ],
    [
      "st",
      "ar"
    ],
    [
      "g",
      "y"
    ],
    [
      "un",
      "g"
    ],
    [
      "ter",
      "s"
    ],
    [
      "1",
      "0"
    ],
    [
      "c",
      "lo"
    ],
    [
      "sou",
      "th"
    ],
    [
      "l",
      "a"
    ],
    [
      "n",
      "am"
    ],
    [
      "un",
      "i"
    ],
    [
      "je",
      "ct"
    ],
    [
      "c",
      "ur"
    ],
    [
      "if",
      "ic"
    ],
    [
      "b",
      "ed"
    ],
    [
      "sch",
      "o"
    ],
    [
      "scho",
      "ol"
    ],
    [
      "orig",
      "in"
    ],
    [
      "d",
      "ist"
    ],
    [
      "l",
      "it"
    ],
    [
      "v",
      "en"
    ],
    [
      "no",
      "ve"
    ],
    [
      "lar",
      "ge"
    ],
    [
      "ver",
      "y"
    ],
    [
      "off",
      "ic"
    ],
    [
      "19",
      "4"
    ],
    [
      "bec",
      "ame"
    ],
    [
      "c",
      "rit"
    ],
    [
      "sho",
      "w"
    ],
    [
      "in",
      "d"
    ],
    [
      "mar",
      "k"
    ],
    [
      "ar",
      "n"
    ],
    [
      "kno",
      "wn"
    ],
    [
      "19",
      "8"
    ],
    [
      "town",
      "s"
    ],
    [
      "s",
      "en"
    ],
    [
      "chr",
      "ist"
    ],
    [
      "v",
      "ol"
    ],
    [
      "re",
      "main"
    ],
    [
      "au",
      "se"
    ],
    [
      "pol",
      "ish"
    ],
    [
      "in",
      "ed"
    ],
    [
      "ho",
      "we"
    ],
    [
      "howe",
      "ver"
    ],
    [
      "f",
      "ur"
    ],
    [
      "be",
      "gan"
    ],
    [
      "cont",
      "in"
    ],
    [
      "c",
      "ap"
    ],
    [
      "s",
      "ed"
    ],
    [
      "fe",
      "at"
    ],
    [
      "fo",
      "und"
    ],
    [
      "ag",
      "ue"
    ],
    [
      "u",
      "ary"
    ],
    [
      "is",
      "ed"
    ],
    [
      "an",
      "g"
    ],
    [
      "u",
      "te"
    ],
    [
      "ra",
      "p"
    ],
    [
      "includ",
      "ing"
    ],
    [
      "ant",
      "im"
    ],
    [
      "re",
      "ce"
    ],
    [
      "e",
      "p"
    ],
    [
      "sa",
      "id"
    ],
    [
      "3",
      "0"
    ],
    [
      "towns",
      "end"
    ],
    [
      "ve",
      "lo"
    ],
    [
      "tr",
      "ans"
    ],
    [
      "o",
      "wn"
    ],
    [
      "pe",
      "op"
    ],
    [
      "peop",
      "le"
    ],
    [
      "u",
      "res"
    ],
    [
      "per",
      "i"
    ],
    [
      "sel",
      "f"
    ],
    [
      "s",
      "ion"
    ],
    [
      "id",
      "ent"
    ],
    [
      "appe",
      "ar"
    ],
    [
      "c",
      "av"
    ],
    [
      "o",
      "b"
    ],
    [
      "ger",
      "man"
    ],
    [
      "be",
      "st"
    ],
    [
      "again",
      "st"
    ],
    [
      "char",
      "ac"
    ],
    [
      "di",
      "rect"
    ],
    [
      "e",
      "gy"
    ],
    [
      "bo",
      "ok"
    ],
    [
      "1",
      "5"
    ],
    [
      "f",
      "le"
    ],
    [
      "de",
      "velo"
    ],
    [
      "un",
      "t"
    ],
    [
      "po",
      "wer"
    ],
    [
      "n",
      "ico"
    ],
    [
      "nico",
      "le"
    ],
    [
      "am",
      "p"
    ],
    [
      "me",
      "mber"
    ],
    [
      "c",
      "ould"
    ],
    [
      "ir",
      "d"
    ],
    [
      "v",
      "id"
    ],
    [
      "hist",
      "ory"
    ],
    [
      "st",
      "ates"
    ],
    [
      "m",
      "as"
    ],
    [
      "is",
      "e"
    ],
    [
      "c",
      "a"
    ],
    [
      "t",
      "ri"
    ],
    [
      "on",
      "d"
    ],
    [
      "antim",
      "ony"
    ],
    [
      "ist",
      "s"
    ],
    [
      "pl",
      "an"
    ],
    [
      "t",
      "le"
    ],
    [
      "p",
      "ri"
    ],
    [
      "m",
      "ill"
    ],
    [
      "gro",
      "und"
    ],
    [
      "le",
      "ague"
    ],
    [
      "egy",
      "pt"
    ],
    [
      "rele",
      "ased"
    ],
    [
      "iv",
      "ed"
    ],
    [
      "a",
      "z"
    ],
    [
      "m",
      "en"
    ],
    [
      "gro",
      "up"
    ],
    [
      "bu",
      "ild"
    ],
    [
      "m",
      "b"
    ],
    [
      "is",
      "land"
    ],
    [
      "co",
      "me"
    ],
    [
      "su",
      "c"
    ],
    [
      "at",
      "ive"
    ],
    [
      "ne",
      "ar"
    ],
    [
      "do",
      "wn"
    ],
    [
      "f",
      "ul"
    ],
    [
      "i",
      "o"
    ],
    [
      "ion",
      "al"
    ],
    [
      "go",
      "ver"
    ],
    [
      "s",
      "arn"
    ],
    [
      "sarn",
      "ia"
    ],
    [
      "iel",
      "d"
    ],
    [
      "or",
      "t"
    ],
    [
      "i",
      "ation"
    ],
    [
      "iz",
      "ed"
    ],
    [
      "ro",
      "y"
    ],
    [
      "ho",
      "me"
    ],
    [
      "f",
      "am"
    ],
    [
      "d",
      "ra"
    ],
    [
      "l",
      "ine"
    ],
    [
      "ment",
      "s"
    ],
    [
      "ur",
      "y"
    ],
    [
      "h",
      "um"
    ],
    [
      "g",
      "old"
    ],
    [
      "he",
      "ad"
    ],
    [
      "jo",
      "h"
    ],
    [
      "ac",
      "c"
    ],
    [
      "s",
      "in"
    ],
    [
      "are",
      "a"
    ],
    [
      "g",
      "a"
    ],
    [
      "ser",
      "ies"
    ],
    [
      "re",
      "tur"
    ],
    [
      "tim",
      "es"
    ],
    [
      "de",
      "c"
    ],
    [
      "c",
      "ut"
    ],
    [
      "des",
      "ign"
    ],
    [
      "e",
      "ach"
    ],
    [
      "pl",
      "ace"
    ],
    [
      "1",
      "7"
    ],
    [
      "suc",
      "cess"
    ],
    [
      "l",
      "ist"
    ],
    [
      "ir",
      "ed"
    ],
    [
      "1",
      "2"
    ],
    [
      "col",
      "le"
    ],
    [
      "g",
      "un"
    ],
    [
      "b",
      "re"
    ],
    [
      "m",
      "il"
    ],
    [
      "com",
      "ple"
    ],
    [
      "e",
      "k"
    ],
    [
      "l",
      "ight"
    ],
    [
      "ro",
      "ck"
    ],
    [
      "v",
      "ide"
    ],
    [
      "ak",
      "ing"
    ],
    [
      "per",
      "son"
    ],
    [
      "t",
      "ing"
    ],
    [
      "end",
      "ed"
    ],
    [
      "c",
      "ial"
    ],
    [
      "care",
      "er"
    ],
    [
      "fe",
      "y"
    ],
    [
      "b",
      "att"
    ],
    [
      "joh",
      "n"
    ],
    [
      "u",
      "b"
    ],
    [
      "c",
      "our"
    ],
    [
      "m",
      "at"
    ],
    [
      "sc",
      "or"
    ],
    [
      "al",
      "ong"
    ],
    [
      "v",
      "es"
    ],
    [
      "follow",
      "ing"
    ],
    [
      "con",
      "stru"
    ],
    [
      "s",
      "ite"
    ],
    [
      "ur",
      "ch"
    ],
    [
      "bec",
      "ause"
    ],
    [
      "s",
      "ame"
    ],
    [
      "ag",
      "ed"
    ],
    [
      "s",
      "ix"
    ],
    [
      "in",
      "es"
    ],
    [
      "sm",
      "all"
    ],
    [
      "spec",
      "ies"
    ],
    [
      "uni",
      "vers"
    ],
    [
      "ship",
      "s"
    ],
    [
      "f",
      "ield"
    ],
    [
      "op",
      "en"
    ],
    [
      "com",
      "p"
    ],
    [
      "to",
      "p"
    ],
    [
      "h",
      "al"
    ],
    [
      "in",
      "st"
    ],
    [
      "po",
      "in"
    ],
    [
      "cra",
      "ft"
    ],
    [
      "tr",
      "u"
    ],
    [
      "st",
      "and"
    ],
    [
      "pre",
      "v"
    ],
    [
      "play",
      "ed"
    ],
    [
      "dif",
      "fer"
    ],
    [
      "it",
      "al"
    ],
    [
      "y",
      "ou"
    ],
    [
      "i",
      "th"
    ],
    [
      "g",
      "iv"
    ],
    [
      "t",
      "al"
    ],
    [
      "k",
      "el"
    ],
    [
      "c",
      "up"
    ],
    [
      "te",
      "x"
    ],
    [
      "he",
      "l"
    ],
    [
      "f",
      "ive"
    ],
    [
      "b",
      "lo"
    ],
    [
      "5",
      "0"
    ],
    [
      "s",
      "k"
    ],
    [
      "st",
      "ed"
    ],
    [
      "nam",
      "ed"
    ],
    [
      "u",
      "se"
    ],
    [
      "b",
      "us"
    ],
    [
      "um",
      "ent"
    ],
    [
      "t",
      "a"
    ],
    [
      "s",
      "im"
    ],
    [
      "d",
      "id"
    ],
    [
      "pl",
      "ac"
    ],
    [
      "1",
      "3"
    ],
    [
      "descri",
      "bed"
    ],
    [
      "b",
      "as"
    ],
    [
      "air",
      "craft"
    ],
    [
      "comm",
      "and"
    ],
    [
      "part",
      "ic"
    ],
    [
      "we",
      "ek"
    ],
    [
      "f",
      "ran"
    ],
    [
      "u",
      "ally"
    ],
    [
      "gener",
      "al"
    ],
    [
      "in",
      "cre"
    ],
    [
      "amer",
      "ican"
    ],
    [
      "ro",
      "w"
    ],
    [
      "ste",
      "in"
    ],
    [
      "h",
      "ou"
    ],
    [
      "tr",
      "ack"
    ],
    [
      "m",
      "er"
    ],
    [
      "call",
      "ed"
    ],
    [
      "m",
      "s"
    ],
    [
      "ch",
      "ild"
    ],
    [
      "d",
      "ol"
    ],
    [
      "cont",
      "ro"
    ],
    [
      "s",
      "qu"
    ],
    [
      "lit",
      "tle"
    ],
    [
      "st",
      "art"
    ],
    [
      "por",
      "ted"
    ],
    [
      "an",
      "other"
    ],
    [
      "fin",
      "kel"
    ],
    [
      "finkel",
      "stein"
    ],
    [
      "nove",
      "mber"
    ],
    [
      "w",
      "ill"
    ],
    [
      "ma",
      "j"
    ],
    [
      "ar",
      "k"
    ],
    [
      "p",
      "at"
    ],
    [
      "n",
      "ame"
    ],
    [
      "c",
      "y"
    ],
    [
      "f",
      "a"
    ],
    [
      "hist",
      "or"
    ],
    [
      "co",
      "ver"
    ],
    [
      "pro",
      "ject"
    ],
    [
      "ran",
      "g"
    ],
    [
      "re",
      "present"
    ],
    [
      "li",
      "fe"
    ],
    [
      "1",
      "4"
    ],
    [
      "form",
      "ed"
    ],
    [
      "de",
      "ities"
    ],
    [
      "add",
      "ition"
    ],
    [
      "v",
      "ing"
    ],
    [
      "y",
      "o"
    ],
    [
      "f",
      "ac"
    ],
    [
      "19",
      "3"
    ],
    [
      "y",
      "s"
    ],
    [
      "christ",
      "mas"
    ],
    [
      "in",
      "du"
    ],
    [
      "p",
      "en"
    ],
    [
      "g",
      "ames"
    ],
    [
      "p",
      "lo"
    ],
    [
      "un",
      "e"
    ],
    [
      "as",
      "h"
    ],
    [
      "f",
      "lo"
    ],
    [
      "sin",
      "ce"
    ],
    [
      "201",
      "3"
    ],
    [
      "egypt",
      "ian"
    ],
    [
      "rece",
      "ived"
    ],
    [
      "act",
      "ion"
    ],
    [
      "r",
      "al"
    ],
    [
      "b",
      "or"
    ],
    [
      "a",
      "im"
    ],
    [
      "st",
      "u"
    ],
    [
      "vis",
      "ion"
    ],
    [
      "pos",
      "ition"
    ],
    [
      "ch",
      "an"
    ],
    [
      "1",
      "1"
    ],
    [
      "p",
      "ing"
    ],
    [
      "dol",
      "lar"
    ],
    [
      "vide",
      "o"
    ],
    [
      "l",
      "ess"
    ],
    [
      "maj",
      "or"
    ],
    [
      "is",
      "su"
    ],
    [
      "gu",
      "st"
    ],
    [
      "ev",
      "en"
    ],
    [
      "h",
      "y"
    ],
    [
      "m",
      "i"
    ],
    [
      "c",
      "le"
    ],
    [
      "mill",
      "ion"
    ],
    [
      "j",
      "an"
    ],
    [
      "e",
      "u"
    ],
    [
      "charac",
      "ter"
    ],
    [
      "s",
      "ide"
    ],
    [
      "b",
      "ased"
    ],
    [
      "k",
      "ed"
    ],
    [
      "r",
      "um"
    ],
    [
      "as",
      "soc"
    ],
    [
      "1",
      "6"
    ],
    [
      "19",
      "2"
    ],
    [
      "th",
      "ose"
    ],
    [
      "sing",
      "le"
    ],
    [
      "t",
      "ro"
    ],
    [
      "no",
      "w"
    ],
    [
      "ord",
      "er"
    ],
    [
      "p",
      "ass"
    ],
    [
      "al",
      "i"
    ],
    [
      "de",
      "f"
    ],
    [
      "univers",
      "ity"
    ],
    [
      "mal",
      "e"
    ],
    [
      "po",
      "st"
    ],
    [
      "contin",
      "u"
    ],
    [
      "g",
      "l"
    ],
    [
      "w",
      "al"
    ],
    [
      "res",
      "s"
    ],
    [
      "ar",
      "o"
    ],
    [
      "sh",
      "ort"
    ],
    [
      "b",
      "le"
    ],
    [
      "im",
      "e"
    ],
    [
      "mu",
      "ch"
    ],
    [
      "peri",
      "od"
    ],
    [
      "il",
      "t"
    ],
    [
      "gover",
      "n"
    ],
    [
      "ro",
      "und"
    ],
    [
      "or",
      "gan"
    ],
    [
      "b",
      "and"
    ],
    [
      "200",
      "7"
    ],
    [
      "ic",
      "a"
    ],
    [
      "h",
      "and"
    ],
    [
      "origin",
      "al"
    ],
    [
      "ib",
      "le"
    ],
    [
      "se",
      "p"
    ],
    [
      "r",
      "il"
    ],
    [
      "pr",
      "of"
    ],
    [
      "d",
      "am"
    ],
    [
      "j",
      "ames"
    ],
    [
      "ke",
      "y"
    ],
    [
      "p",
      "a"
    ],
    [
      "oc",
      "to"
    ],
    [
      "octo",
      "ber"
    ],
    [
      "19",
      "7"
    ],
    [
      "ch",
      "urch"
    ],
    [
      "m",
      "ad"
    ],
    [
      "pol",
      "it"
    ],
    [
      "i",
      "ent"
    ],
    [
      "res",
      "p"
    ],
    [
      "cons",
      "id"
    ],
    [
      "le",
      "ft"
    ],
    [
      "fo",
      "ot"
    ],
    [
      "ical",
      "ly"
    ],
    [
      "de",
      "ce"
    ],
    [
      "v",
      "in"
    ],
    [
      "na",
      "than"
    ],
    [
      "w",
      "ent"
    ],
    [
      "ju",
      "st"
    ],
    [
      "le",
      "g"
    ],
    [
      "ap",
      "ril"
    ],
    [
      "hal",
      "f"
    ],
    [
      "ab",
      "l"
    ],
    [
      "be",
      "li"
    ],
    [
      "he",
      "av"
    ],
    [
      "aw",
      "ard"
    ],
    [
      "with",
      "in"
    ],
    [
      "il",
      "ity"
    ],
    [
      "re",
      "view"
    ],
    [
      "aw",
      "ay"
    ],
    [
      "h",
      "l"
    ],
    [
      "th",
      "ird"
    ],
    [
      "bl",
      "ack"
    ],
    [
      "ap",
      "pro"
    ],
    [
      "h",
      "av"
    ],
    [
      "on",
      "s"
    ],
    [
      "l",
      "ast"
    ],
    [
      "sep",
      "te"
    ],
    [
      "septe",
      "mber"
    ],
    [
      "govern",
      "ment"
    ],
    [
      "s",
      "it"
    ],
    [
      "tr",
      "y"
    ],
    [
      "b",
      "an"
    ],
    [
      "re",
      "al"
    ],
    [
      "ul",
      "ation"
    ],
    [
      "aro",
      "und"
    ],
    [
      "re",
      "ad"
    ],
    [
      "wh",
      "at"
    ],
    [
      "re",
      "qu"
    ],
    [
      "mo",
      "ved"
    ],
    [
      "mu",
      "se"
    ],
    [
      "muse",
      "um"
    ],
    [
      "build",
      "ing"
    ],
    [
      "r",
      "is"
    ],
    [
      "can",
      "ad"
    ],
    [
      "dece",
      "mber"
    ],
    [
      "comm",
      "un"
    ],
    [
      "eu",
      "ro"
    ],
    [
      "qu",
      "e"
    ],
    [
      "gra",
      "ph"
    ],
    [
      "au",
      "gust"
    ],
    [
      "n",
      "at"
    ],
    [
      "est",
      "abl"
    ],
    [
      "ent",
      "ly"
    ],
    [
      "ie",
      "ty"
    ],
    [
      "ex",
      "cav"
    ],
    [
      "ial",
      "ly"
    ],
    [
      "ge",
      "t"
    ],
    [
      "to",
      "ok"
    ],
    [
      "st",
      "y"
    ],
    [
      "j",
      "une"
    ],
    [
      "bu",
      "ilt"
    ],
    [
      "k",
      "er"
    ],
    [
      "rou",
      "te"
    ],
    [
      "pos",
      "ed"
    ],
    [
      "hou",
      "se"
    ],
    [
      "w",
      "ard"
    ],
    [
      "st",
      "ri"
    ],
    [
      "tr",
      "ad"
    ],
    [
      "st",
      "ud"
    ],
    [
      "ther",
      "n"
    ],
    [
      "am",
      "l"
    ],
    [
      "r",
      "un"
    ],
    [
      "prev",
      "ious"
    ],
    [
      "l",
      "im"
    ],
    [
      "u",
      "k"
    ],
    [
      "l",
      "s"
    ],
    [
      "sy",
      "n"
    ],
    [
      "acc",
      "ord"
    ],
    [
      "is",
      "m"
    ],
    [
      "ke",
      "t"
    ],
    [
      "iv",
      "a"
    ],
    [
      "includ",
      "ed"
    ],
    [
      "in",
      "fl"
    ],
    [
      "of",
      "ten"
    ],
    [
      "hum",
      "an"
    ],
    [
      "b",
      "ur"
    ],
    [
      "indi",
      "a"
    ],
    [
      "sh",
      "iva"
    ],
    [
      "n",
      "ba"
    ],
    [
      "differ",
      "ent"
    ],
    [
      "act",
      "iv"
    ],
    [
      "st",
      "ated"
    ],
    [
      "d",
      "en"
    ],
    [
      "au",
      "th"
    ],
    [
      "fam",
      "ily"
    ],
    [
      "p",
      "al"
    ],
    [
      "im",
      "port"
    ],
    [
      "t",
      "ar"
    ],
    [
      "l",
      "ay"
    ],
    [
      "re",
      "t"
    ],
    [
      "f",
      "act"
    ],
    [
      "c",
      "ru"
    ],
    [
      "w",
      "ater"
    ],
    [
      "mo",
      "t"
    ],
    [
      "unt",
      "il"
    ],
    [
      "accord",
      "ing"
    ],
    [
      "v",
      "an"
    ],
    [
      "k",
      "m"
    ],
    [
      "stu",
      "di"
    ],
    [
      "euro",
      "pe"
    ],
    [
      "201",
      "1"
    ],
    [
      "rele",
      "ase"
    ],
    [
      "if",
      "ied"
    ],
    [
      "de",
      "st"
    ],
    [
      "pro",
      "te"
    ],
    [
      "s",
      "co"
    ],
    [
      "loc",
      "ated"
    ],
    [
      "cl",
      "ub"
    ],
    [
      "w",
      "on"
    ],
    [
      "tru",
      "j"
    ],
    [
      "truj",
      "il"
    ],
    [
      "trujil",
      "lo"
    ],
    [
      "201",
      "0"
    ],
    [
      "c",
      "amp"
    ],
    [
      "yo",
      "ung"
    ],
    [
      "ad",
      "o"
    ],
    [
      "te",
      "le"
    ],
    [
      "constru",
      "ction"
    ],
    [
      "form",
      "er"
    ],
    [
      "du",
      "e"
    ],
    [
      "re",
      "st"
    ],
    [
      "f",
      "ic"
    ],
    [
      "th",
      "ing"
    ],
    [
      "gre",
      "at"
    ],
    [
      "ce",
      "pt"
    ],
    [
      "in",
      "it"
    ],
    [
      "m",
      "ag"
    ],
    [
      "l",
      "an"
    ],
    [
      "n",
      "av"
    ],
    [
      "m",
      "id"
    ],
    [
      "cor",
      "n"
    ],
    [
      "19",
      "6"
    ],
    [
      "200",
      "6"
    ],
    [
      "st",
      "ory"
    ],
    [
      "direct",
      "or"
    ],
    [
      "sup",
      "port"
    ],
    [
      "w",
      "ing"
    ],
    [
      "od",
      "y"
    ],
    [
      "u",
      "de"
    ],
    [
      "b",
      "ase"
    ],
    [
      "cl",
      "aim"
    ],
    [
      "f",
      "ri"
    ],
    [
      "giv",
      "en"
    ],
    [
      "por",
      "ts"
    ],
    [
      "in",
      "ing"
    ],
    [
      "ac",
      "ad"
    ],
    [
      "acad",
      "em"
    ],
    [
      "ers",
      "on"
    ],
    [
      "jan",
      "uary"
    ],
    [
      "squ",
      "ad"
    ],
    [
      "member",
      "s"
    ],
    [
      "ar",
      "my"
    ],
    [
      "ma",
      "ke"
    ],
    [
      "pe",
      "ct"
    ],
    [
      "2",
      "5"
    ],
    [
      "cent",
      "ury"
    ],
    [
      "publ",
      "ished"
    ],
    [
      "su",
      "g"
    ],
    [
      "rom",
      "an"
    ],
    [
      "ro",
      "le"
    ],
    [
      "mil",
      "it"
    ],
    [
      "play",
      "er"
    ],
    [
      "ate",
      "ly"
    ],
    [
      "ne",
      "x"
    ],
    [
      "t",
      "it"
    ],
    [
      "ant",
      "i"
    ],
    [
      "c",
      "us"
    ],
    [
      "w",
      "ro"
    ],
    [
      "wro",
      "te"
    ],
    [
      "19",
      "5"
    ],
    [
      "l",
      "ate"
    ],
    [
      "ll",
      "s"
    ],
    [
      "er",
      "o"
    ],
    [
      "lo",
      "sa"
    ],
    [
      "u",
      "ke"
    ],
    [
      "batt",
      "le"
    ],
    [
      "through",
      "out"
    ],
    [
      "po",
      "int"
    ],
    [
      "produ",
      "ced"
    ],
    [
      "p",
      "ur"
    ],
    [
      "se",
      "arch"
    ],
    [
      "ur",
      "al"
    ],
    [
      "fur",
      "ther"
    ],
    [
      "mon",
      "th"
    ],
    [
      "b",
      "ill"
    ],
    [
      "inst",
      "it"
    ],
    [
      "ut",
      "ion"
    ],
    [
      "s",
      "ol"
    ],
    [
      "se",
      "ven"
    ],
    [
      "record",
      "ed"
    ],
    [
      "partic",
      "ular"
    ],
    [
      "auth",
      "or"
    ],
    [
      "h",
      "ar"
    ],
    [
      "ag",
      "es"
    ],
    [
      "infl",
      "u"
    ],
    [
      "sug",
      "ge"
    ],
    [
      "200",
      "9"
    ],
    [
      "and",
      "erson"
    ],
    [
      "t",
      "ak"
    ],
    [
      "s",
      "al"
    ],
    [
      "loc",
      "al"
    ],
    [
      "st",
      "em"
    ],
    [
      "f",
      "el"
    ],
    [
      "bl",
      "ue"
    ],
    [
      "4",
      "0"
    ],
    [
      "c",
      "ame"
    ],
    [
      "ag",
      "o"
    ],
    [
      "c",
      "ul"
    ],
    [
      "r",
      "ul"
    ],
    [
      "r",
      "ight"
    ],
    [
      "v",
      "o"
    ],
    [
      "se",
      "qu"
    ],
    [
      "he",
      "ld"
    ],
    [
      "bo",
      "ard"
    ],
    [
      "go",
      "al"
    ],
    [
      "at",
      "or"
    ],
    [
      "ch",
      "es"
    ],
    [
      "200",
      "8"
    ],
    [
      "to",
      "ur"
    ],
    [
      "f",
      "r"
    ],
    [
      "so",
      "und"
    ],
    [
      "f",
      "ig"
    ],
    [
      "f",
      "ron"
    ],
    [
      "in",
      "vol"
    ],
    [
      "id",
      "ed"
    ],
    [
      "fin",
      "al"
    ],
    [
      "no",
      "ted"
    ],
    [
      "c",
      "as"
    ],
    [
      "ev",
      "ent"
    ],
    [
      "18",
      "6"
    ],
    [
      "mar",
      "ch"
    ],
    [
      "al",
      "low"
    ],
    [
      "ir",
      "on"
    ],
    [
      "at",
      "tem"
    ],
    [
      "comm",
      "er"
    ],
    [
      "m",
      "ix"
    ],
    [
      "per",
      "for"
    ],
    [
      "perfor",
      "man"
    ],
    [
      "s",
      "ap"
    ],
    [
      "milit",
      "ary"
    ],
    [
      "west",
      "ern"
    ],
    [
      "d",
      "a"
    ],
    [
      "des",
      "p"
    ],
    [
      "desp",
      "ite"
    ],
    [
      "produ",
      "ction"
    ],
    [
      "d",
      "s"
    ],
    [
      "ro",
      "ad"
    ],
    [
      "u",
      "c"
    ],
    [
      "prof",
      "ess"
    ],
    [
      "le",
      "y"
    ],
    [
      "ch",
      "art"
    ],
    [
      "in",
      "a"
    ],
    [
      "sap",
      "rang"
    ],
    [
      "end",
      "ing"
    ],
    [
      "ri",
      "but"
    ],
    [
      "id",
      "es"
    ],
    [
      "cent",
      "ral"
    ],
    [
      "plac",
      "ed"
    ],
    [
      "n",
      "er"
    ],
    [
      "fa",
      "ther"
    ],
    [
      "col",
      "um"
    ],
    [
      "de",
      "ath"
    ],
    [
      "pr",
      "im"
    ],
    [
      "igh",
      "ts"
    ],
    [
      "re",
      "ach"
    ],
    [
      "v",
      "i"
    ],
    [
      "l",
      "ond"
    ],
    [
      "lond",
      "on"
    ],
    [
      "le",
      "uke"
    ],
    [
      "lo",
      "ve"
    ],
    [
      "il",
      "ar"
    ],
    [
      "st",
      "ill"
    ],
    [
      "en",
      "ces"
    ],
    [
      "se",
      "en"
    ],
    [
      "n",
      "ight"
    ],
    [
      "rel",
      "ation"
    ],
    [
      "h",
      "ur"
    ],
    [
      "oper",
      "ations"
    ],
    [
      "develo",
      "p"
    ],
    [
      "f",
      "ree"
    ],
    [
      "n",
      "s"
    ],
    [
      "fe",
      "ct"
    ],
    [
      "pop",
      "ular"
    ],
    [
      "to",
      "wer"
    ],
    [
      "am",
      "ong"
    ],
    [
      "pol",
      "ice"
    ],
    [
      "ab",
      "o"
    ],
    [
      "s",
      "ist"
    ],
    [
      "rel",
[...]
